{"merges": [["n", "</w>"], ["e", "</w>"], ["i", "n"], ["e", "r"], ["t", "</w>"], [".", "</w>"], ["e", "n</w>"], ["s", "</w>"], ["i", "n</w>"], ["d", "</w>"], ["er", "</w>"], ["g", "</w>"], ["c", "h"], ["a", "n"], ["e", "in"], ["a", "</w>"], ["m", "</w>"], ["in", "g</w>"], ["u", "n"], ["a", "r"], ["a", "u"], ["t", "h"], ["e", "i"], ["e", "m</w>"], ["a", "n</w>"], ["s", "t"], ["f", "</w>"], ["A", "</w>"], ["e", "n"], ["e", "l"], ["a", "l"], ["r", "o"], ["ein", "em</w>"], ["o", "n</w>"], ["E", "in</w>"], ["s", "i"], ["o", "r"], [",", "</w>"], ["un", "d</w>"], ["s", "ch"], ["c", "k"], ["m", "an</w>"], ["y", "</w>"], ["r", "e"], ["m", "i"], ["h", "i"], ["an", "d</w>"], ["l", "a"], ["e", "s</w>"], ["l", "e</w>"], ["th", "e</w>"], ["o", "</w>"], ["r", "a"], ["l", "</w>"], ["au", "f</w>"], ["mi", "t</w>"], ["w", "i"], ["M", "an"], ["o", "n"], ["e", "h"], ["i", "s</w>"], ["Man", "n</w>"], ["d", "er</w>"], ["ein", "er</w>"], ["a", "t"], ["ch", "</w>"], ["o", "f</w>"], ["th", "</w>"], ["in", "e</w>"], ["ei", "</w>"], ["r", "i"], ["l", "i"], ["r", "au"], ["wi", "th</w>"], ["g", "e</w>"], ["s", "p"], ["d", "i"], ["h", "r"], ["E", "ine</w>"], ["o", "p"], ["t", "t"], ["a", "t</w>"], ["b", "o"], ["e", "in</w>"], ["e", "t</w>"], ["w", "o"], ["o", "l"], ["b", "l"], ["s", "s"], ["F", "rau"], ["u", "r"], ["o", "w"], ["i", "r"], ["an", "d"], ["g", "e"], ["t", "en</w>"], ["ck", "</w>"], ["ein", "e</w>"], ["t", "e</w>"], ["u", "p"], ["i", "el"], ["t", "o</w>"], ["e", "d</w>"], ["k", "</w>"], ["S", "t"], ["un", "g</w>"], ["w", "hi"], ["t", "z"], ["ein", "en</w>"], ["Frau", "</w>"], ["al", "l</w>"], ["w", "e"], ["d", "e</w>"], ["k", "ing</w>"], ["or", "</w>"], ["M", "ä"], ["m", "en</w>"], ["ar", "e</w>"], ["w", "o</w>"], ["b", "e"], ["o", "o"], ["w", "ei</w>"], ["-", "</w>"], ["d", "en</w>"], ["t", "s</w>"], ["wo", "man</w>"], ["g", "en</w>"], ["i", "l"], ["p", "la"], ["er", "s"], ["di", "e</w>"], ["k", "l"], ["n", "e"], ["a", "m"], ["g", "ro"], ["r", "t</w>"], ["ch", "en</w>"], ["z", "u"], ["g", "t</w>"], ["a", "s</w>"], ["o", "u"], ["d", "ing</w>"], ["S", "ch"], ["s", "h"], ["t", "er</w>"], ["eh", "t</w>"], ["Z", "wei</w>"], ["t", "i"], ["e", "op"], ["d", "o"], ["eop", "le</w>"], ["i", "m</w>"], ["T", "wo</w>"], ["s", "t</w>"], ["sp", "iel"], ["hi", "rt</w>"], ["e", "m"], ["ar", "ing</w>"], ["u", "m"], ["l", "e"], ["b", "a"], ["w", "al"], ["si", "tz"], ["pla", "y"], ["up", "</w>"], ["we", "aring</w>"], ["d", "e"], ["t", "er"], ["p", "eople</w>"], ["ar", "</w>"], ["w", "ei"], ["s", "hirt</w>"], ["v", "on</w>"], ["w", "ar"], ["f", "t</w>"], ["o", "m"], ["g", "h"], ["ä", "hr"], ["o", "ung</w>"], ["si", "ch</w>"], ["tt", "ing</w>"], ["d", "em</w>"], ["f", "ro"], ["whi", "te</w>"], ["t", "a"], ["ä", "l"], ["v", "er"], ["T", "h"], ["b", "en</w>"], ["i", "t"], ["u", "e</w>"], ["b", "la"], ["ch", "t</w>"], ["Mä", "d"], ["wei", "ß"], ["s", "e</w>"], ["s", "s</w>"], ["st", "and"], ["p", "e</w>"], ["hi", "s</w>"], ["Mäd", "chen</w>"], ["b", "all</w>"], ["g", "ir"], ["in", "d</w>"], ["un", "ge</w>"], ["el", "l"], ["n", "er</w>"], ["eh", "en</w>"], ["y", "oung</w>"], ["re", "d</w>"], ["P", "ers"], ["c", "e</w>"], ["w", "at"], ["bla", "ck</w>"], ["e", "t"], ["v", "or</w>"], ["war", "z"], ["er", "s</w>"], ["n", "t</w>"], ["m", "a"], ["whi", "le</w>"], ["zu", "</w>"], ["w", "a"], ["on", "e</w>"], ["bl", "ue</w>"], ["th", "er</w>"], ["ein", "es</w>"], ["p", "a"], ["sch", "warz"], ["Mä", "n"], ["ra", "ß"], ["ar", "b"], ["l", "o"], ["b", "er"], ["bl", "au"], ["el", "</w>"], ["ow", "</w>"], ["ro", "w"], ["t", "r"], ["f", "a"], ["s", "k"], ["g", "r"], ["st", "eht</w>"], ["en", "d</w>"], ["e", "u"], ["st", "re"], ["bo", "y</w>"], ["St", "raß"], ["si", "tting</w>"], ["al", "</w>"], ["sch", "en</w>"], ["a", "d"], ["b", "y</w>"], ["l", "ä"], ["i", "c"], ["h", "ol"], ["gir", "l</w>"], ["r", "</w>"], ["do", "g</w>"], ["l", "oo"], ["Män", "ner</w>"], ["n", "en</w>"], ["b", "u"], ["sitz", "t</w>"], ["d", "r"], ["al", "l"], ["stand", "ing</w>"], ["H", "und</w>"], ["ow", "n</w>"], ["r", "ei"], ["G", "e"], ["play", "ing</w>"], ["a", "ir"], ["J", "unge</w>"], ["c", "o"], ["i", "e"], ["ch", "il"], ["er", "t</w>"], ["g", "ra"], ["f", "or"], ["a", "ck"], ["si", "de</w>"], ["t", "o"], ["b", "ei</w>"], ["b", "er</w>"], ["er", "e</w>"], ["gro", "up</w>"], ["M", "en"], ["p", "o"], ["s", "e"], ["g", "er</w>"], ["h", "er</w>"], ["up", "pe</w>"], ["u", "l"], ["i", "k"], ["ä", "n"], ["stre", "et</w>"], ["a", "p"], ["äl", "t</w>"], ["G", "r"], ["a", "m</w>"], ["t", "ra"], ["Straß", "e</w>"], ["d", "own</w>"], ["l", "an"], ["a", "ch</w>"], ["h", "o"], ["h", "ält</w>"], ["u", "m</w>"], ["f", "i"], ["ähr", "end</w>"], ["ou", "t"], ["w", "ährend</w>"], ["S", "p"], ["er", "n</w>"], ["en", "t"], ["wal", "king</w>"], ["re", "e</w>"], ["d", "s</w>"], ["er", "en</w>"], ["a", "ss"], ["Gr", "uppe</w>"], ["spiel", "t</w>"], ["H", "em"], ["fro", "nt</w>"], ["o", "ther</w>"], ["h", "at</w>"], ["i", "hr"], ["g", "el"], ["ar", "d</w>"], ["r", "in"], ["k", "s</w>"], ["hol", "ding</w>"], ["d", "re"], ["l", "ei"], ["p", "ar"], ["ü", "ber</w>"], ["Hem", "d</w>"], ["air", "</w>"], ["on", "en</w>"], ["n", "i"], ["g", "s</w>"], ["sch", "au"], ["d", "ur"], ["t", "et</w>"], ["f", "en</w>"], ["Pers", "onen</w>"], ["B", "a"], ["i", "sch"], ["ä", "u"], ["m", "m"], ["r", "un"], ["au", "s</w>"], ["m", "o"], ["r", "u"], ["d", "as</w>"], ["h", "in"], ["wat", "er</w>"], ["blau", "en</w>"], ["w", "or"], ["um", "p"], ["F", "a"], ["i", "st</w>"], ["y", "ing</w>"], ["gh", "</w>"], ["g", "u"], ["v", "er</w>"], ["f", "ü"], ["W", "ass"], ["weiß", "en</w>"], ["K", "in"], ["en", "en</w>"], ["en", "t</w>"], ["ß", "en</w>"], ["Th", "e</w>"], ["h", "e"], ["or", "an"], ["s", "om"], ["b", "ei"], ["g", "re"], ["f", "f"], ["k", "i"], ["Frau", "en</w>"], ["am", "er"], ["ro", "ten</w>"], ["op", "</w>"], ["tt", "le</w>"], ["u", "ft</w>"], ["n", "e</w>"], ["v", "e</w>"], ["ne", "ben</w>"], ["c", "ar"], ["sp", "rin"], ["K", "ind</w>"], ["b", "ra"], ["ro", "u"], ["st", "ehen</w>"], ["j", "ump"], ["loo", "king</w>"], ["A", "n</w>"], ["h", "a"], ["t", "e"], ["kl", "ei"], ["Men", "schen</w>"], ["gre", "en</w>"], ["wo", "men</w>"], ["g", "eht</w>"], ["f", "arb"], ["spiel", "en</w>"], ["h", "e</w>"], ["f", "or</w>"], ["gr", "ü"], ["dur", "ch</w>"], ["g", "en"], ["sitz", "en</w>"], ["D", "r"], ["b", "ri"], ["tr", "ä"], ["wal", "k</w>"], ["d", "a"], ["Dr", "ei</w>"], ["d", "es</w>"], ["f", "ähr"], ["fa", "hr"], ["l", "ar"], ["fähr", "t</w>"], ["a", "d</w>"], ["out", "side</w>"], ["chil", "d</w>"], ["K", "lei"], ["b", "</w>"], ["Fa", "hr"], ["Th", "ree</w>"], ["s", "n"], ["trä", "gt</w>"], ["l", "u"], ["i", "t</w>"], ["A", "u"], ["c", "ro"], ["li", "ttle</w>"], ["gro", "und</w>"], ["rou", "gh</w>"], ["t", "ei"], ["e", "tt"], ["eh", "r"], ["li", "e"], ["s", "u"], ["l", "ing</w>"], ["lar", "ge</w>"], ["Pers", "on</w>"], ["row", "n</w>"], ["Wass", "er</w>"], ["bra", "un"], ["th", "rough</w>"], ["u", "t</w>"], ["an", "s</w>"], ["b", "all"], ["s", "en</w>"], ["L", "eu"], ["ell", "ow</w>"], ["Kin", "der</w>"], ["c", "on"], ["p", "h"], ["y", "s</w>"], ["Sp", "iel"], ["y", "ellow</w>"], ["O", "ber"], ["amer", "a</w>"], ["b", "rown</w>"], ["ur", "</w>"], ["dr", "en</w>"], ["t", "wo</w>"], ["e", "st"], ["j", "un"], ["l", "y</w>"], ["un", "ter</w>"], ["ma", "cht</w>"], ["s", "c"], ["p", "</w>"], ["kl", "eines</w>"], ["el", "t</w>"], ["bo", "ard</w>"], ["d", "ung</w>"], ["g", "er"], ["i", "er</w>"], ["sprin", "gt</w>"], ["b", "en"], ["y", "c"], ["s", "m"], ["ba", "ck"], ["d", "er"], ["ent", "lan"], ["j", "ack"], ["b", "ik"], ["schwarz", "en</w>"], ["bl", "on"], ["fro", "m</w>"], ["F", "o"], ["ei", "r</w>"], ["la", "ss"], ["on", "g</w>"], ["th", "eir</w>"], ["p", "u"], ["arb", "ei"], ["dre", "ss"], ["ra", "d</w>"], ["k", "e</w>"], ["gh", "t</w>"], ["in", "to</w>"], ["ck", "t</w>"], ["r", "en"], ["H", "o"], ["p", "ers"], ["t", "or"], ["at", "e"], ["n", "ing</w>"], ["entlan", "g</w>"], ["t", "ing</w>"], ["f", "oo"], ["z", "wei</w>"], ["bu", "il"], ["in", "ter"], ["ou", "t</w>"], ["pers", "on</w>"], ["s", "a"], ["x", "t</w>"], ["el", "e"], ["o", "f"], ["kl", "einer</w>"], ["o", "c"], ["F", "el"], ["l", "er</w>"], ["chil", "dren</w>"], ["am", "e</w>"], ["for", "m"], ["h", "al"], ["ne", "xt</w>"], ["th", "ing</w>"], ["tei", "l</w>"], ["ck", "en</w>"], ["p", "in"], ["r", "an"], ["Leu", "te</w>"], ["b", "le</w>"], ["v", "or"], ["b", "li"], ["B", "ü"], ["g", "ehen</w>"], ["st", "and</w>"], ["au", "f"], ["wi", "r"], ["dress", "ed</w>"], ["v", "ers"], ["w", "as</w>"], ["l", "s</w>"], ["t", "ur"], ["c", "row"], ["j", "e"], ["sm", "all</w>"], ["u", "ß"], ["b", "äu"], ["m", "u"], ["s", "mi"], ["o", "ver</w>"], ["d", "d"], ["v", "ing</w>"], ["h", "er"], ["ar", "o"], ["w", "in"], ["al", "e</w>"], ["z", "i"], ["at", "i"], ["buil", "ding</w>"], ["s", "in"], ["g", "a"], ["un", "gen</w>"], ["i", "e</w>"], ["s", "ing</w>"], ["F", "uß"], ["lä", "ch"], ["ss", "en</w>"], ["A", "r"], ["wi", "mm"], ["S", "e"], ["h", "el"], ["et", "was</w>"], ["p", "er"], ["ri", "ding</w>"], ["c", "ol"], ["m", "ar"], ["ehr", "ere</w>"], ["run", "ning</w>"], ["oran", "ge</w>"], ["äl", "ter"], ["s", "einem</w>"], ["P", "eople</w>"], ["gro", "ßen</w>"], ["f", "er"], ["d", "y</w>"], ["ne", "ar</w>"], ["Ober", "teil</w>"], ["d", "et</w>"], ["ar", "k</w>"], ["jack", "et</w>"], ["l", "le</w>"], ["an", "other</w>"], ["aro", "und</w>"], ["grü", "nen</w>"], ["t", "ri"], ["or", "ts</w>"], ["f", "iel"], ["q", "u"], ["l", "au"], ["ti", "on</w>"], ["a", "ch"], ["t", "op</w>"], ["B", "o"], ["el", "n</w>"], ["si", "de"], ["Ge", "bäu"], ["k", "t</w>"], ["schau", "t</w>"], ["isch", "</w>"], ["r", "and</w>"], ["un", "ter"], ["z", "ei"], ["J", "ack"], ["fiel", "d</w>"], ["som", "e</w>"], ["ge", "klei"], ["gr", "und</w>"], ["ta", "ble</w>"], ["side", "walk</w>"], ["t", "en"], ["'", "</w>"], ["g", "lass"], ["H", "inter"], ["b", "eh"], ["z", "eu"], ["c", "lo"], ["glass", "es</w>"], ["v", "i"], ["i", "h"], ["F", "rei"], ["B", "au"], ["oo", "l</w>"], ["G", "ra"], ["be", "ach</w>"], ["m", "en"], ["u", "h"], ["H", "and</w>"], ["g", "ing</w>"], ["bo", "ar"], ["o", "m</w>"], ["s", "ur"], ["t", "al"], ["lä", "uft</w>"], ["crow", "d</w>"], ["p", "ic"], ["e", "y</w>"], ["st", "a"], ["c", "ing</w>"], ["j", "unge</w>"], ["M", "ehrere</w>"], ["pin", "k</w>"], ["stand", "s</w>"], ["wa", "y</w>"], ["farb", "enen</w>"], ["ar", "r"], ["K", "op"], ["si", "ts</w>"], ["H", "a"], ["c", "om"], ["sch", "e</w>"], ["sch", "en"], ["jump", "ing</w>"], ["s", "ind</w>"], ["D", "er</w>"], ["beh", "ind</w>"], ["an", "k</w>"], ["bik", "e</w>"], ["ck", "s</w>"], ["ar", "i"], ["Fahr", "rad</w>"], ["it", "y</w>"], ["A", "si"], ["fü", "r</w>"], ["som", "e"], ["Hinter", "grund</w>"], ["b", "e</w>"], ["ph", "one</w>"], ["ck", "e</w>"], ["M", "o"], ["an", "z"], ["sn", "ow</w>"], ["J", "ungen</w>"], ["b", "t</w>"], ["w", "</w>"], ["Jack", "e</w>"], ["d", "an"], ["ch", "ing</w>"], ["tur", "e</w>"], ["B", "all</w>"], ["gra", "ss</w>"], ["L", "uft</w>"], ["Frei", "en</w>"], ["ge", "st"], ["n", "en"], ["St", "rand</w>"], ["h", "air</w>"], ["p", "i"], ["g", "es</w>"], ["and", "eren</w>"], ["Klei", "dung</w>"], ["back", "ground</w>"], ["l", "es</w>"], ["p", "ing</w>"], ["we", "g</w>"], ["a", "si"], ["yc", "le</w>"], ["S", "hirt</w>"], ["l", "l</w>"], ["a", "f"], ["d", "ern</w>"], ["H", "un"], ["gel", "ben</w>"], ["s", "am"], ["S", "k"], ["Sch", "ne"], ["ch", "e</w>"], ["geklei", "de"], ["jun", "ger</w>"], ["l", "en</w>"], ["f", "in"], ["par", "k</w>"], ["d", "ed</w>"], ["of", "f</w>"], ["hin", "ter</w>"], ["T", "</w>"], ["for", "m</w>"], ["un", "ta"], ["M", "an</w>"], ["r", "ü"], ["c", "er</w>"], ["c", "ity</w>"], ["st", "ei"], ["at", "ing</w>"], ["hal", "ten</w>"], ["p", "ro"], ["spiel", "er</w>"], ["ch", "es</w>"], ["play", "er</w>"], ["s", "es</w>"], ["gir", "ls</w>"], ["st", "ü"], ["b", "ic"], ["n", "ach</w>"], ["p", "e"], ["al", "s</w>"], ["loo", "ks</w>"], ["dre", "ss</w>"], ["o", "t</w>"], ["v", "ol"], ["v", "es</w>"], ["w", "all</w>"], ["gro", "ß"], ["b", "i"], ["Men", "schen"], ["S", "on"], ["and", "ere</w>"], ["do", "gs</w>"], ["A", "n"], ["N", "ä"], ["m", "e"], ["il", "d</w>"], ["sh", "</w>"], ["H", "ut</w>"], ["wo", "o"], ["ö", "r"], ["g", "i"], ["gu", "it"], ["ver", "al</w>"], ["f", "er</w>"], ["f", "la"], ["s", "un"], ["th", "at</w>"], ["st", "er</w>"], ["Gebäu", "de</w>"], ["f", "e"], ["g", "el</w>"], ["schwarz", "er</w>"], ["sk", "et"], ["T", "isch</w>"], ["c", "li"], ["f", "o"], ["w", "er"], ["h", "ne</w>"], ["c", "amera</w>"], ["c", "i"], ["h", "and"], ["t", "em</w>"], ["un", "i"], ["per", "form"], ["tz", "</w>"], ["T", "a"], ["men", "ge</w>"], ["p", "an"], ["t", "re"], ["s", "hi"], ["t", "ball</w>"], ["si", "e</w>"], ["au", "ran"], ["wir", "d</w>"], ["col", "or"], ["s", "en"], ["Nä", "he</w>"], ["zu", "g</w>"], ["ate", "board</w>"], ["ber", "ei"], ["tal", "king</w>"], ["some", "thing</w>"], ["bei", "m</w>"], ["c", "</w>"], ["s", "ehen</w>"], ["bo", "ys</w>"], ["po", "si"], ["kl", "eine</w>"], ["fahr", "er</w>"], ["kl", "einen</w>"], ["an", "der</w>"], ["f", "l"], ["oc", "cer</w>"], ["ol", "d</w>"], ["ol", "der</w>"], ["G", "it"], ["d", "un"], ["f", "en"], ["st", "ri"], ["Menschen", "menge</w>"], ["arr", "e</w>"], ["au", "s"], ["ein", "ander</w>"], ["p", "re"], ["wal", "ks</w>"], ["weiß", "er</w>"], ["al", "ong</w>"], ["cro", "ss</w>"], ["l", "in"], ["G", "eh"], ["j", "o"], ["K", "amera</w>"], ["M", "u"], ["guit", "ar</w>"], ["h", "or"], ["st", "r"], ["t", "ung</w>"], ["wor", "king</w>"], ["pla", "y</w>"], ["f", "u"], ["foo", "d</w>"], ["i", "ts</w>"], ["la", "dy</w>"], ["to", "ge"], ["blon", "d</w>"], ["s", "occer</w>"], ["toge", "ther</w>"], ["ü", "ber"], ["ü", "n"], ["Gra", "s</w>"], ["st", "ru"], ["vor", "bei</w>"], ["H", "and"], ["ho", "ch</w>"], ["t", "es</w>"], ["f", "ri"], ["B", "er"], ["Hun", "de</w>"], ["g", "o"], ["si", "g"], ["zeu", "g</w>"], ["E", "in"], ["auran", "t</w>"], ["g", "rau"], ["Bo", "den</w>"], ["gra", "y</w>"], ["a", "b"], ["p", "ed</w>"], ["p", "er</w>"], ["lie", "gt</w>"], ["Schne", "e</w>"], ["Z", "u"], ["ro", "ad</w>"], ["oran", "ge"], ["smi", "ling</w>"], ["fü", "hr"], ["ro", "om</w>"], ["D", "ie</w>"], ["r", "ying</w>"], ["ren", "nt</w>"], ["t", "u"], ["ch", "tet</w>"], ["I", "n"], ["bo", "o"], ["ch", "er</w>"], ["g", "ame</w>"], ["d", "en"], ["h", "as</w>"], ["ati", "on</w>"], ["farb", "en"], ["St", "ad"], ["b", "al"], ["h", "and</w>"], ["pic", "ture</w>"], ["s", "we"], ["sch", "ä"], ["B", "u"], ["Son", "nen"], ["ihr", "e</w>"], ["re", "st"], ["si", "eht</w>"], ["b", "and</w>"], ["sch", "n"], ["st", "i"], ["t", "t</w>"], ["sch", "ie"], ["schwarz", "</w>"], ["re", "a"], ["or", "e</w>"], ["play", "s</w>"], ["su", "it</w>"], ["w", "h"], ["a", "de</w>"], ["zu", "sam"], ["S", "ei"], ["l", "l"], ["st", "en</w>"], ["V", "ier</w>"], ["c", "ar</w>"], ["i", "</w>"], ["Asi", "an</w>"], ["schau", "en</w>"], ["\"", "</w>"], ["fahr", "en</w>"], ["h", "n"], ["vers", "u"], ["Git", "arre</w>"], ["hol", "ds</w>"], ["k", "en</w>"], ["k", "ers</w>"], ["ihr", "en</w>"], ["k", "er</w>"], ["dd", "le</w>"], ["B", "ri"], ["J", "e"], ["fa", "ce</w>"], ["sh", "ing</w>"], ["sp", "e"], ["ar", "e"], ["ss", "t</w>"], ["str", "um"], ["v", "e"], ["c", "tion</w>"], ["cli", "m"], ["ch", "e"], ["Fo", "ur</w>"], ["ben", "ch</w>"], ["t", "y</w>"], ["Klei", "d</w>"], ["at", "s</w>"], ["h", "n</w>"], ["and", "er"], ["at", "e</w>"], ["hi", "m</w>"], ["pan", "ts</w>"], ["si", "t</w>"], ["e", "x"], ["m", "an"], ["p", "ur"], ["braun", "en</w>"], ["T", "ri"], ["m", "er</w>"], ["n", "a"], ["sh", "orts</w>"], ["P", "fer"], ["braun", "er</w>"], ["c", "a"], ["sn", "ow"], ["he", "ad</w>"], ["in", "s</w>"], ["t", "el</w>"], ["d", "u"], ["a", "bo"], ["sta", "ge</w>"], ["stei", "g</w>"], ["co", "up"], ["n", "is</w>"], ["ä", "r"], ["car", "rying</w>"], ["m", "e</w>"], ["unta", "in</w>"], ["Mo", "tor"], ["ic", "</w>"], ["shi", "r"], ["pa", "in"], ["sch", "</w>"], ["ba", "by</w>"], ["s", "ein</w>"], ["p", "ool</w>"], ["fu", "l</w>"], ["älter", "er</w>"], ["ar", "en</w>"], ["ro", "ck</w>"], ["Fel", "d</w>"], ["ba", "ck</w>"], ["be", "fin"], ["p", "le</w>"], ["rau", "ßen</w>"], ["zusam", "men</w>"], ["be", "de"], ["o", "ff"], ["coup", "le</w>"], ["se", "ball</w>"], ["th", "em</w>"], ["ü", "r"], ["Bü", "hne</w>"], ["P", "a"], ["p", "s</w>"], ["tz", "t</w>"], ["Straß", "en"], ["bic", "ycle</w>"], ["i", "g"], ["ihr", "</w>"], ["out", "do"], ["tz", "e</w>"], ["W", "o"], ["d", "raußen</w>"], ["o", "ck</w>"], ["sp", "ri"], ["on", "s</w>"], ["or", "t</w>"], ["t", "ree</w>"], ["f", "em"], ["k", "au"], ["E", "r"], ["b", "un"], ["Bri", "lle</w>"], ["her", "um</w>"], ["Se", "veral</w>"], ["or", "s</w>"], ["el", "le</w>"], ["sket", "ball</w>"], ["T", "e"], ["ar", "t</w>"], ["le", "a"], ["m", "al"], ["s", "eine</w>"], ["Ar", "bei"], ["Kop", "f</w>"], ["ball", "spieler</w>"], ["bli", "ckt</w>"], ["dr", "in"], ["je", "ans</w>"], ["e", "ach</w>"], ["mi", "tt"], ["r", "ä"], ["ra", "ce</w>"], ["wa", "ch"], ["R", "e"], ["da", "y</w>"], ["l", "ong</w>"], ["s", "le"], ["sh", "o"], ["ta", "king</w>"], ["G", "el"], ["M", "ik"], ["Geh", "weg</w>"], ["V", "er"], ["c", "or"], ["klei", "dung</w>"], ["f", "lo"], ["to", "gra"], ["Mik", "ro"], ["arbei", "tet</w>"], ["ol", "z"], ["B", "lu"], ["M", "e"], ["at", "t"], ["d", "ri"], ["sch", "lä"], ["P", "ark</w>"], ["R", "u"], ["do", "ing</w>"], ["ett", "e</w>"], ["Fo", "to</w>"], ["bo", "at</w>"], ["da", "bei</w>"], ["s", "einen</w>"], ["st", "e"], ["t", "ow"], ["P", "o"], ["c", "re"], ["mi", "cro"], ["Sch", "wimm"], ["t", "s"], ["d", "ar"], ["isch", "e</w>"], ["t", "anz"], ["R", "en"], ["a", "cross</w>"], ["wat", "ching</w>"], ["B", "e"], ["bri", "lle</w>"], ["h", "ell"], ["H", "än"], ["Stad", "t</w>"], ["ch", "ten</w>"], ["are", "a</w>"], ["di", "rt</w>"], ["m", "ale</w>"], ["P", "ar"], ["at", "er</w>"], ["hin", "unter</w>"], ["lau", "fen</w>"], ["s", "si"], ["sle", "e"], ["ate", "boar"], ["mi", "ddle</w>"], ["wa", "gen</w>"], ["Je", "ans</w>"], ["an", "g</w>"], ["mu", "si"], ["w", "ing</w>"], ["z", "en</w>"], ["H", "olz"], ["H", "ü"], ["clim", "b"], ["k", "es</w>"], ["p", "ho"], ["B", "oo"], ["versu", "cht</w>"], ["tra", "gen</w>"], ["Ba", "by</w>"], ["asi", "at"], ["co", "ver"], ["d", "ark</w>"], ["ein", "i"], ["wi", "e</w>"], ["K", "un"], ["k", "ur"], ["jump", "s</w>"], ["bede", "ck"], ["co", "at</w>"], ["B", "ank</w>"], ["hand", "s</w>"], ["f", "on</w>"], ["c", "u"], ["ou", "th</w>"], ["zei", "gt</w>"], ["ir", "e</w>"], ["kl", "ett"], ["x", "</w>"], ["ein", "g</w>"], ["E", "i"], ["Sch", "u"], ["b", "r"], ["m", "p"], ["R", "ei"], ["W", "al"], ["e", "y"], ["o", "b"], ["D", "ame</w>"], ["k", "o"], ["mo", "tor"], ["perform", "ing</w>"], ["rei", "f"], ["Ge", "si"], ["Pa", "ar</w>"], ["f", "an"], ["M", "ar"], ["en", "den</w>"], ["arbei", "ten</w>"], ["ma", "chen</w>"], ["re", "ad"], ["st", "u"], ["wh", "o</w>"], ["Bü", "r"], ["H", "el"], ["e", "ating</w>"], ["gest", "reif"], ["m", "er"], ["s", "be"], ["P", "la"], ["fem", "ale</w>"], ["groß", "e</w>"], ["li", "chen</w>"], ["läch", "elt</w>"], ["un", "der</w>"], ["E", "ssen</w>"], ["K", "l"], ["b", "eing</w>"], ["M", "au"], ["stri", "ped</w>"], ["ba", "seball</w>"], ["gu", "y</w>"], ["orange", "farbenen</w>"], ["sig", "n</w>"], ["z", "e</w>"], ["ck", "ing</w>"], ["t", "ed</w>"], ["Bür", "ger"], ["u", "sing</w>"], ["M", "ü"], ["ar", "s</w>"], ["d", "ge</w>"], ["F", "lu"], ["i", "ert</w>"], ["ihr", "em</w>"], ["schn", "ei"], ["t", "ro"], ["win", "d"], ["hor", "se</w>"], ["i", "red</w>"], ["ar", "m"], ["fi", "t</w>"], ["foo", "tball</w>"], ["wat", "ch</w>"], ["M", "i"], ["am", "m"], ["ih", "m</w>"], ["k", "et</w>"], ["am", "p"], ["m", "outh</w>"], ["pur", "ple</w>"], ["st", "ore</w>"], ["l", "ed</w>"], ["uh", "l</w>"], ["M", "a"], ["Sk", "ateboard</w>"], ["c", "ti"], ["i", "l</w>"], ["ro", "t</w>"], ["s", "li"], ["ro", "s"], ["F", "ri"], ["eh", "r</w>"], ["j", "u"], ["jun", "ges</w>"], ["Bürger", "steig</w>"], ["Ho", "se</w>"], ["S", "h"], ["e", "an</w>"], ["älter", "e</w>"], ["Mu", "si"], ["blau", "</w>"], ["ha", "ired</w>"], ["lie", "st</w>"], ["loo", "k</w>"], ["s", "and</w>"], ["weiß", "</w>"], ["ch", "air</w>"], ["spri", "cht</w>"], ["t", "ele"], ["ander", "er</w>"], ["st", "e</w>"], ["u", "ck</w>"], ["wor", "k</w>"], ["T", "en"], ["W", "a"], ["c", "at"], ["en", "jo"], ["führ", "t</w>"], ["g", "g"], ["p", "ul"], ["run", "s</w>"], ["ten", "nis</w>"], ["Kop", "f"], ["ad", "ul"], ["hi", "l"], ["po", "sing</w>"], ["k", "el"], ["k", "om"], ["ap", "</w>"], ["ol", "l"], ["rea", "ding</w>"], ["ss", "ing</w>"], ["stru", "ction</w>"], ["unter", "halten</w>"], ["Y", "oung</w>"], ["f", "e</w>"], ["or", "t"], ["p", "pe</w>"], ["ren", "nen</w>"], ["sch", "ir"], ["sun", "glasses</w>"], ["en", "a"], ["F", "oo"], ["Ha", "aren</w>"], ["W", "and</w>"], ["an", "ce</w>"], ["ra", "d"], ["weiß", "em</w>"], ["clo", "thing</w>"], ["fl", "ow"], ["te", "am</w>"], ["uni", "form</w>"], ["micro", "phone</w>"], ["play", "ers</w>"], ["ros", "a</w>"], ["th", "ree</w>"], ["h", "än"], ["li", "ght</w>"], ["s", "el"], ["Th", "ere</w>"], ["ie", "se</w>"], ["l", "ine</w>"], ["la", "g"], ["K", "ü"], ["cover", "ed</w>"], ["e", "ts</w>"], ["mo", "untain</w>"], ["v", "iel"], ["L", "i"], ["Wass", "er"], ["Z", "ei"], ["em", "p"], ["f", "fi"], ["g", "ri"], ["s", "wimm"], ["sch", "t</w>"], ["to", "y</w>"], ["a", "th"], ["air", "s</w>"], ["be", "tra"], ["in", "strum"], ["it", "ing</w>"], ["c", "t</w>"], ["er", "ed</w>"], ["ß", "t</w>"], ["Ba", "se"], ["Boo", "t</w>"], ["Sonnen", "brille</w>"], ["an", "i"], ["g", "ar"], ["grau", "en</w>"], ["hel", "m"], ["oc", "ean</w>"], ["c", "es</w>"], ["er", "ten</w>"], ["tt", "er</w>"], ["wat", "ches</w>"], ["zu", "m</w>"], ["K", "o"], ["Pfer", "d</w>"], ["ba", "sketball</w>"], ["climb", "ing</w>"], ["dan", "cing</w>"], ["dr", "ei</w>"], ["dur", "ing</w>"], ["isch", "er</w>"], ["motor", "c"], ["le", "y"], ["rest", "aurant</w>"], ["Ho", "sen</w>"], ["R", "est"], ["a", "ga"], ["blau", "em</w>"], ["gekleide", "te</w>"], ["in", "st</w>"], ["ki", "ds</w>"], ["m", "ent</w>"], ["o", "ba"], ["pa", "st</w>"], ["re", "s</w>"], ["L", "e"], ["Spiel", "er</w>"], ["c", "an</w>"], ["der", "ly</w>"], ["s", "einer</w>"], ["he", "ad"], ["pla", "tz</w>"], ["shir", "ts</w>"], ["ti", "</w>"], ["to", "s</w>"], ["Ge", "w"], ["Ta", "g</w>"], ["be", "oba"], ["helm", "et</w>"], ["“", "</w>"], ["L", "a"], ["S", "i"], ["Zu", "schau"], ["ck", "ey</w>"], ["Gel", "än"], ["P", "ul"], ["aga", "inst</w>"], ["schä", "ft</w>"], ["B", "et"], ["Hel", "m</w>"], ["Kun", "st"], ["en", "de</w>"], ["s", "et</w>"], ["Au", "f"], ["S", "ki"], ["f", "ul"], ["tra", "in</w>"], ["tt", "e</w>"], ["W", "e"], ["au", "m</w>"], ["ge", "sch"], ["klett", "ert</w>"], ["sin", "gt</w>"], ["um", "br"], ["wind", "ow</w>"], ["Gesi", "cht</w>"], ["Au", "to</w>"], ["a", "b</w>"], ["ffi", "ti</w>"], ["le", "an"], ["mi", "li"], ["ri", "des</w>"], ["ro", "l"], ["Er", "wach"], ["el", "derly</w>"], ["h", "en</w>"], ["ih", "nen</w>"], ["F", "eu"], ["in", "gs</w>"], ["th", "row"], ["weiß", "e</w>"], ["Fuß", "ball</w>"], ["S", "om"], ["p", "en</w>"], ["„", "</w>"], ["B", "ild</w>"], ["F", "en"], ["Man", "tel</w>"], ["ch", "a"], ["ge", "b"], ["K", "i"], ["Sh", "orts</w>"], ["tz", "en</w>"], ["B", "and</w>"], ["b", "el"], ["color", "ed</w>"], ["ga", "th"], ["h", "ou"], ["i", "ce</w>"], ["O", "ne</w>"], ["posi", "ert</w>"], ["s", "er"], ["tre", "es</w>"], ["woo", "den</w>"], ["Fel", "sen</w>"], ["abo", "ut</w>"], ["dar", "auf</w>"], ["dun", "kel"], ["ha", "ving</w>"], ["tr", "in"], ["R", "ad"], ["Ten", "ni"], ["ba", "g</w>"], ["outdo", "or</w>"], ["sp", "la"], ["ö", "ff"], ["F", "i"], ["K", "a"], ["R", "o"], ["b", "ar"], ["st", "um"], ["wa", "iting</w>"], ["Man", "n"], ["bl", "es</w>"], ["s", "y</w>"], ["th", "ey</w>"], ["befin", "det</w>"], ["blau", "er</w>"], ["c", "ell"], ["p", "lan"], ["st", "ell"], ["tr", "uck</w>"], ["wir", "ft</w>"], ["arbei", "ter</w>"], ["g", "eh"], ["swimm", "ing</w>"], ["ver", "y</w>"], ["f", "el"], ["ge", "tting</w>"], ["ß", "</w>"], ["Män", "n"], ["ar", "ds</w>"], ["bo", "w"], ["co", "stum"], ["d", "enen</w>"], ["flo", "or</w>"], ["h", "u"], ["op", "s</w>"], ["H", "er"], ["bu", "s</w>"], ["e", "v"], ["el", "n"], ["sbe", "e</w>"], ["wor", "kers</w>"], ["S", "and</w>"], ["a", "c"], ["co", "ur"], ["con", "struction</w>"], ["li", "ch</w>"], ["lo", "ver</w>"], ["n", "et</w>"], ["n", "s</w>"], ["o", "th"], ["tr", "ying</w>"], ["D", "e"], ["Mikro", "fon</w>"], ["berei", "tet</w>"], ["k", "e"], ["lean", "ing</w>"], ["m", "at"], ["sk", "ateboard</w>"], ["Bau", "m</w>"], ["a", "ft</w>"], ["hi", "ll</w>"], ["uh", "en</w>"], ["Tenni", "s"], ["at", "ue</w>"], ["boo", "k</w>"], ["c", "t"], ["f", "est"], ["g", "lei"], ["schwarz", "em</w>"], ["T", "re"], ["bu", "sy</w>"], ["color", "ful</w>"], ["g", "s"], ["gekleide", "ter</w>"], ["spiel", "</w>"], ["vers", "amm"], ["yc", "li"], ["V", "or"], ["at", "ed</w>"], ["sin", "ging</w>"], ["ss", "y</w>"], ["ö", "p"], ["D", "as</w>"], ["N", "e"], ["Po", "li"], ["Wo", "man</w>"], ["f", "all"], ["fen", "ce</w>"], ["g", "la"], ["m", "et"], ["s", "ehr</w>"], ["ti", "ger</w>"], ["Rest", "aurant</w>"], ["clo", "th"], ["de", "o</w>"], ["em", "ent</w>"], ["hi", "gh</w>"], ["i", "d</w>"], ["jump", "</w>"], ["sch", "aft</w>"], ["Kl", "ein"], ["N", "a"], ["T", "his</w>"], ["ck", "et</w>"], ["k", "ot</w>"], ["sch", "la"], ["ör", "per</w>"], ["Me", "er</w>"], ["W", "ei"], ["er", "in</w>"], ["h", "l"], ["ro", "tem</w>"], ["s", "o"], ["ter", "s</w>"], ["R", "ü"], ["car", "t</w>"], ["en", "s</w>"], ["ge", "d</w>"], ["ha", "ari"], ["mi", "t"], ["o", "der</w>"], ["ro", "sa"], ["ro", "ter</w>"], ["d", "ra"], ["h", "ü"], ["ow", "ing</w>"], ["s", "k</w>"], ["u", "t"], ["B", "l"], ["St", "ü"], ["We", "g</w>"], ["ap", "p"], ["eh", "nt</w>"], ["en", "e</w>"], ["f", "li"], ["lan", "gen</w>"], ["li", "che</w>"], ["mar", "ket</w>"], ["po", "li"], ["Arbei", "ter</w>"], ["Wal", "d</w>"], ["i", "sst</w>"], ["j", "a"], ["k", "ind</w>"], ["ri", "de</w>"], ["ro", "un"], ["t", "an</w>"], ["Männ", "ern</w>"], ["h", "t</w>"], ["k", "it"], ["p", "ie"], ["sprin", "gen</w>"], ["Fen", "ster</w>"], ["Kin", "dern</w>"], ["Pul", "lover</w>"], ["R", "aum</w>"], ["W", "iese</w>"], ["gestreif", "ten</w>"], ["h", "ats</w>"], ["in", "side</w>"], ["la", "ying</w>"], ["läch", "eln"], ["mitt", "en</w>"], ["o", "ben</w>"], ["sa", "ck</w>"], ["schwarz", "e</w>"], ["M", "en</w>"], ["Sch", "ild</w>"], ["an", "zug</w>"], ["c", "ap</w>"], ["e", "ssen</w>"], ["h", "an"], ["ley", "ball</w>"], ["sk", "ateboar"], ["war", "tet</w>"], ["2", "</w>"], ["b", "ar</w>"], ["bo", "dy</w>"], ["al", "ter</w>"], ["bri", "ght</w>"], ["sh", "a"], ["st", "s</w>"], ["An", "zug</w>"], ["Tri", "kot</w>"], ["h", "ei"], ["kit", "chen</w>"], ["oth", "ers</w>"], ["ter", "n</w>"], ["ver", "kau"], ["Fri", "sbee</w>"], ["R", "a"], ["Schu", "tz"], ["cell", "phone</w>"], ["gra", "ssy</w>"], ["o", "ver"], ["pa", "th</w>"], ["pre", "p"], ["si", "l"], ["Motor", "rad</w>"], ["S", "ur"], ["e", "se</w>"], ["f", "il"], ["gel", "b"], ["i", "mm"], ["ma", "ch"], ["Ru", "ck"], ["St", "u"], ["au", "n</w>"], ["b", "ele"], ["be", "cken</w>"], ["ell", "a</w>"], ["ma", "king</w>"], ["out", "fit</w>"], ["vol", "ler</w>"], ["w", "he"], ["Blu", "se</w>"], ["O", "b"], ["S", "and"], ["W", "est"], ["back", "pa"], ["boar", "der</w>"], ["ch", "t"], ["cloth", "es</w>"], ["for", "e"], ["grü", "n"], ["mal", "t</w>"], ["ni", "ght</w>"], ["posi", "eren</w>"], ["un", "der"], ["K", "ar"], ["Ober", "k"], ["V", "iel"], ["bi", "g</w>"], ["bri", "ck</w>"], ["e", "e</w>"], ["li", "cher</w>"], ["m", "än"], ["op", "ping</w>"], ["ss", "er</w>"], ["ta", "kes</w>"], ["tri", "ck</w>"], ["wer", "den</w>"], ["Ha", "ar</w>"], ["M", "et"], ["ic", "an</w>"], ["je", "ct</w>"], ["sur", "roun"], ["umbr", "ella</w>"], ["bele", "b"], ["c", "an"], ["er", "i"], ["ful", "l</w>"], ["motorc", "ycle</w>"], ["rei", "tet</w>"], ["tow", "ards</w>"], ["tra", "ck</w>"], ["wi", "schen</w>"], ["Oberk", "örper</w>"], ["S", "n"], ["U", "ni"], ["at", "shirt</w>"], ["c", "ra"], ["k", "an"], ["pu", "ter</w>"], ["sh", "op</w>"], ["y", "m"], ["F", "ün"], ["Fün", "f</w>"], ["a", "ge</w>"], ["ch", "tung</w>"], ["enjo", "ying</w>"], ["f", "on"], ["ri", "ver</w>"], ["schä", "f"], ["ti", "on"], ["uni", "form"], ["v", "ie"], ["zi", "eht</w>"], ["St", "uhl</w>"], ["Viel", "e</w>"], ["al", "ten</w>"], ["b", "rau"], ["el", "l</w>"], ["f", "f</w>"], ["k", "auf"], ["met", "al</w>"], ["s", "wing</w>"], ["y", "ard</w>"], ["E", "n"], ["P", "ro"], ["Spiel", "</w>"], ["dun", "kl"], ["e", "p</w>"], ["g", "ging</w>"], ["h", "äu"], ["n", "y</w>"], ["op", "en</w>"], ["st", "ra"], ["über", "qu"], ["Fuß", "ball"], ["i", "gen</w>"], ["k", "ed</w>"], ["k", "el</w>"], ["ou", "s</w>"], ["pa", "per</w>"], ["v", "en"], ["Erwach", "sen"], ["Ko", "stü"], ["betra", "chtet</w>"], ["dan", "ce</w>"], ["ow", "s</w>"], ["pie", "ce</w>"], ["read", "y</w>"], ["F", "re"], ["Hü", "gel</w>"], ["i", "p"], ["sh", "es</w>"], ["sur", "f"], ["t", "ank</w>"], ["vi", "ol"], ["er", "ing</w>"], ["gen", "ie"], ["sp", "a"], ["z", "wischen</w>"], ["Fi", "ve</w>"], ["Hand", "y</w>"], ["U", "m"], ["an", "ge"], ["el", "s</w>"], ["g", "ol"], ["ou", "ch</w>"], ["C", "hil"], ["R", "oll"], ["blon", "de</w>"], ["en", "der</w>"], ["en", "ts</w>"], ["g", "ang</w>"], ["ge", "gen"], ["k", "ni"], ["st", "ic</w>"], ["tanz", "en</w>"], ["A", "fri"], ["Leu", "ten</w>"], ["amer", "ik"], ["c", "la"], ["er", "y</w>"], ["la", "ke</w>"], ["schlä", "ft</w>"], ["war", "ten</w>"], ["äu", "men</w>"], ["Ber", "g</w>"], ["Sn", "ow"], ["Sp", "ort"], ["at", "en</w>"], ["ch", "s</w>"], ["ge", "ben</w>"], ["i", "ge</w>"], ["k", "ne"], ["s", "ell"], ["ss", "e</w>"], ["sti", "ck</w>"], ["swe", "ater</w>"], ["Bu", "ch</w>"], ["Mü", "tze</w>"], ["Ren", "nen</w>"], ["b", "re"], ["en", "ing</w>"], ["k", "a"], ["k", "or"], ["k", "ü"], ["p", "ra"], ["pho", "togra"], ["sh", "e</w>"], ["su", "b"], ["x", "ing</w>"], ["Feu", "er"], ["K", "on"], ["Sch", "ul"], ["abo", "ve</w>"], ["f", "ol"], ["gen", "d"], ["in", "i</w>"], ["l", "ehnt</w>"], ["mm", "t</w>"], ["pa", "ar</w>"], ["pain", "ting</w>"], ["s", "ed</w>"], ["se", "veral</w>"], ["um", "mer</w>"], ["A", "mer"], ["P", "ap"], ["R", "i"], ["Spiel", "zeug</w>"], ["ar", "m</w>"], ["ha", "ben</w>"], ["ne", "e"], ["r", "ung</w>"], ["tri", "tt</w>"], ["A", "l"], ["Hän", "den</w>"], ["c", "le</w>"], ["go", "ing</w>"], ["ow", "boy</w>"], ["s", "on"], ["Ba", "hn</w>"], ["O", "ut"], ["P", "u"], ["Sch", "n"], ["St", "ock</w>"], ["T", "ur"], ["an", "t</w>"], ["bedeck", "ten</w>"], ["c", "oo"], ["e", "si"], ["ge", "gen</w>"], ["l", "ü"], ["man", "y</w>"], ["n", "ach"], ["n", "o"], ["ru", "n</w>"], ["v", "ed</w>"], ["z", "</w>"], ["Mau", "l</w>"], ["beoba", "chtet</w>"], ["h", "ard</w>"], ["m", "t</w>"], ["mit", "einander</w>"], ["on", "es</w>"], ["op", "e</w>"], ["p", "p"], ["snow", "y</w>"], ["st", "one</w>"], ["ve", "st</w>"], ["wi", "m"], ["z", "er</w>"], ["B", "äumen</w>"], ["Ba", "de"], ["T", "ra"], ["d", "ers</w>"], ["f", "rei"], ["hou", "se</w>"], ["po", "in"], ["s", "car"], ["sh", "opping</w>"], ["wa", "ve</w>"], ["Flu", "ss</w>"], ["asi", "an</w>"], ["b", "il"], ["in", "di"], ["musi", "c</w>"], ["ne", "w"], ["on", "to</w>"], ["surroun", "ded</w>"], ["tanz", "t</w>"], ["uniform", "s</w>"], ["Base", "ball"], ["Bau", "arbeiter</w>"], ["H", "al"], ["Klein", "kind</w>"], ["Ren", "n"], ["Ruck", "sack</w>"], ["ch", "ter</w>"], ["crow", "ded</w>"], ["ihr", "er</w>"], ["li", "ke</w>"], ["m", "in"], ["wor", "ker</w>"], ["A", "b"], ["Ar", "m</w>"], ["F", "er"], ["Gew", "ä"], ["P", "i"], ["pa", "ss"], ["tt", "en</w>"], ["Au", "s"], ["U", "</w>"], ["U", "n"], ["am", "s</w>"], ["backpa", "ck</w>"], ["c", "al</w>"], ["fan", "gen</w>"], ["ge", "ar</w>"], ["le", "ss</w>"], ["po", "le</w>"], ["schie", "bt</w>"], ["smi", "les</w>"], ["Foo", "tball</w>"], ["Sch", "au"], ["be", "side</w>"], ["h", "oo"], ["män", "n"], ["outdo", "ors</w>"], ["pho", "to</w>"], ["r", "än"], ["ra", "m"], ["sch", "ine</w>"], ["sch", "nee"], ["st", "eh"], ["S", "a"], ["adul", "ts</w>"], ["con", "vers"], ["f", "ire</w>"], ["lau", "gh"], ["sch", "wimm"], ["schir", "m</w>"], ["to", "dd"], ["v", "om</w>"], ["Ba", "sket"], ["Fa", "mili"], ["Rad", "fahrer</w>"], ["b", "ir"], ["ba", "hn</w>"], ["befin", "den</w>"], ["brau", "n</w>"], ["do", "or</w>"], ["drin", "king</w>"], ["m", "on"], ["st", "al"], ["w", "and</w>"], ["zi", "eren</w>"], ["G", "ro"], ["Schwimm", "becken</w>"], ["an", "ge</w>"], ["ho", "ckey</w>"], ["in", "ing</w>"], ["k", "ä"], ["mi", "ly</w>"], ["rad", "fahrer</w>"], ["s", "ä"], ["sch", "rei"], ["ti", "sch</w>"], ["Ein", "kauf"], ["G", "ri"], ["Ge", "gen"], ["bri", "dge</w>"], ["farben", "er</w>"], ["h", "len</w>"], ["k", "ari"], ["rü", "cke</w>"], ["sch", "ö"], ["st", "er"], ["G", "et"], ["Kü", "che</w>"], ["Re", "gen"], ["Sei", "te</w>"], ["di", "tion"], ["flow", "ers</w>"], ["ki", "d</w>"], ["s", "and"], ["s", "er</w>"], ["sk", "ir"], ["st", "ä"], ["B", "la"], ["C", "om"], ["O", "l"], ["S", "of"], ["Se", "e</w>"], ["Sk", "ateboar"], ["arm", "s</w>"], ["au", "ti"], ["c", "l"], ["eini", "gen</w>"], ["gath", "ered</w>"], ["läch", "e</w>"], ["ro", "pe</w>"], ["spe", "a"], ["stü", "ck</w>"], ["ver", "schie"], ["äu", "fer</w>"], ["B", "ik"], ["Ge", "schäft</w>"], ["In", "strum"], ["W", "elle</w>"], ["ev", "ent</w>"], ["han", "ging</w>"], ["kur", "zen</w>"], ["m", "ü"], ["ni", "mmt</w>"], ["sho", "es</w>"], ["L", "o"], ["a", "way</w>"], ["ar", "y</w>"], ["cat", "ch</w>"], ["en", "ce</w>"], ["g", "ers</w>"], ["lo", "t</w>"], ["on", "g"], ["rol", "ler</w>"], ["sch", "uhen</w>"], ["sub", "way</w>"], ["Afri", "can</w>"], ["G", "la"], ["Rü", "cken</w>"], ["Sch", "ü"], ["Tre", "ppe</w>"], ["Z", "aun</w>"], ["auti", "ful</w>"], ["b", "ur"], ["car", "ri"], ["di", "es</w>"], ["fa", "mily</w>"], ["fel", "d</w>"], ["le", "u"], ["s", "win"], ["ur", "e</w>"], ["G", "em"], ["G", "er"], ["ch", "ed</w>"], ["prep", "aring</w>"], ["s", "mo"], ["schnei", "det</w>"], ["tele", "fon"], ["tra", "dition"], ["Famili", "e</w>"], ["Te", "ena"], ["W", "er"], ["bal", "lo"], ["com", "p"], ["costum", "e</w>"], ["el", "ing</w>"], ["em", "and</w>"], ["läch", "eln</w>"], ["mi", "d"], ["ob", "ject</w>"], ["ru", "t"], ["ste", "ps</w>"], ["t", "ball"], ["ta", "bles</w>"], ["todd", "ler</w>"], ["verkau", "ft</w>"], ["z", "ur</w>"], ["I", "n</w>"], ["Man", "y</w>"], ["amerik", "an"], ["ap", "pe"], ["att", "emp"], ["c", "ur"], ["ch", "er"], ["f", "le"], ["fi", "shing</w>"], ["g", "n"], ["n", "um"], ["off", "ic"], ["sch", "ein"], ["slee", "ping</w>"], ["tu", "res</w>"], ["Chil", "dren</w>"], ["Get", "rän"], ["Sch", "la"], ["an", "stal"], ["at", "es</w>"], ["au", "ss"], ["b", "ank</w>"], ["g", "ent"], ["gu", "ys</w>"], ["rosa", "farbenen</w>"], ["s", "enen</w>"], ["trin", "kt</w>"], ["versamm", "elt</w>"], ["w", "en"], ["Amer", "ican</w>"], ["B", "all"], ["H", "au"], ["Met", "all"], ["Par", "k"], ["af", "ter</w>"], ["ben", "u"], ["bun", "ten</w>"], ["fo", "untain</w>"], ["hän", "gt</w>"], ["kä", "mp"], ["mach", "ine</w>"], ["pla", "id</w>"], ["ra", "il"], ["sch", "af"], ["sh", "ort</w>"], ["st", "ar"], ["ul", "p"], ["vol", "leyball</w>"], ["woo", "d</w>"], ["zi", "mm"], ["F", "lag"], ["Sch", "warz"], ["be", "autiful</w>"], ["h", "ö"], ["ir", "</w>"], ["sch", "ri"], ["st", "airs</w>"], ["st", "atue</w>"], ["t", "less</w>"], ["ta", "ke</w>"], ["Blu", "men</w>"], ["K", "ap"], ["S", "o"], ["anz", "</w>"], ["c", "lu"], ["di", "um</w>"], ["ih", "n</w>"], ["l", "and"], ["n", "eh"], ["p", "on"], ["s", "qu"], ["sp", "an"], ["z", "o"], ["B", "il"], ["T", "ei"], ["adul", "t</w>"], ["ch", "airs</w>"], ["e", "qu"], ["eini", "ge</w>"], ["l", "t</w>"], ["le", "ap"], ["pin", "k"], ["ro", "te</w>"], ["s", "ei"], ["Mar", "kt</w>"], ["St", "ein"], ["Wa", "gen</w>"], ["gr", "uppe</w>"], ["gra", "ffiti</w>"], ["sch", "ü"], ["telefon", "iert</w>"], ["G", "ar"], ["Sch", "ir"], ["V", "i"], ["anstal", "tung</w>"], ["b", "rea"], ["beleb", "ten</w>"], ["ell", "en</w>"], ["ff", "ee</w>"], ["ger", "ade</w>"], ["h", "om"], ["he", "bt</w>"], ["or", "i"], ["po", "se</w>"], ["poli", "ce</w>"], ["ro", "n</w>"], ["te", "ena"], ["Zu", "g</w>"], ["asiat", "ische</w>"], ["bal", "an"], ["be", "t"], ["com", "pe"], ["f", "ru"], ["g", "o</w>"], ["groß", "er</w>"], ["pra", "cti"], ["ro", "cks</w>"], ["sch", "er</w>"], ["schlä", "gt</w>"], ["schwimm", "t</w>"], ["sell", "ing</w>"], ["shir", "tless</w>"], ["spa", "zieren</w>"], ["st", "ung</w>"], ["um", "geben</w>"], ["un", "g"], ["Bu", "s</w>"], ["Rei", "he</w>"], ["a", "ged</w>"], ["do", "es</w>"], ["fore", "st</w>"], ["h", "ör"], ["j", "ers"], ["sun", "ny</w>"], ["zimm", "er</w>"], ["ün", "st"], ["Bl", "um"], ["Gewä", "sser</w>"], ["W", "ett"], ["Z", "ie"], ["a", "ari"], ["bli", "cken</w>"], ["farben", "em</w>"], ["gla", "ss</w>"], ["k", "ei"], ["ll", "t</w>"], ["n", "el</w>"], ["n", "ä"], ["pro", "te"], ["r", "el"], ["s", "ol"], ["se", "tting</w>"], ["son", "ni"], ["sp", "re"], ["tt", "er"], ["v", "est"], ["weiß", "es</w>"], ["ycli", "st</w>"], ["Au", "tos</w>"], ["Fuß", "ballspieler</w>"], ["Kopf", "bedeck"], ["T", "y"], ["V", "ol"], ["c", "e"], ["f", "liegt</w>"], ["fo", "ur</w>"], ["frei", "em</w>"], ["g", "et</w>"], ["geklei", "det</w>"], ["k", "t"], ["m", "ehr"], ["par", "ade</w>"], ["ra", "cing</w>"], ["schnee", "bedeckten</w>"], ["st", "ance</w>"], ["st", "elle</w>"], ["st", "raß"], ["stru", "c"], ["te", "ten</w>"], ["un", "d"], ["In", "di"], ["J", "u"], ["Mu", "tter</w>"], ["Ta", "sche</w>"], ["ass", "e</w>"], ["berei", "ten</w>"], ["bo", "th</w>"], ["cor", "ner</w>"], ["d", "ti"], ["drin", "k</w>"], ["equ", "ip"], ["grün", "em</w>"], ["h", "ut</w>"], ["imm", "el</w>"], ["kom", "mt</w>"], ["mo", "unta"], ["ou", "l"], ["p", "ol"], ["pu", "tting</w>"], ["r", "y</w>"], ["rü", "stung</w>"], ["togra", "fi"], ["ul", "ti"], ["viel", "en</w>"], ["yc", "les</w>"], ["B", "rücke</w>"], ["Feuer", "w"], ["Fuß", "</w>"], ["Gebäu", "des</w>"], ["Hän", "de</w>"], ["ar", "ti"], ["auss", "eh"], ["bik", "es</w>"], ["bli", "k"], ["blik", "um</w>"], ["f", "all</w>"], ["fi", "gh"], ["gent", "le"], ["h", "em"], ["lä", "sst</w>"], ["pu", "shing</w>"], ["sc", "re"], ["scar", "f</w>"], ["sonni", "gen</w>"], ["straß", "e</w>"], ["t", "all</w>"], ["throw", "ing</w>"], ["tr", "y</w>"], ["v", "al</w>"], ["v", "ier</w>"], ["vor", "bei"], ["H", "immel</w>"], ["Pu", "blikum</w>"], ["T", "ele"], ["T", "i"], ["b", "au"], ["be", "fest"], ["bet", "we"], ["betwe", "en</w>"], ["fo", "tografi"], ["ha", "ve</w>"], ["instrum", "ent</w>"], ["jack", "e</w>"], ["pa", "dd"], ["par", "ty</w>"], ["pu", "bli"], ["sli", "de</w>"], ["vie", "w</w>"], ["y", "o"], ["ü", "gen</w>"], ["B", "art</w>"], ["Hem", "den</w>"], ["Ho", "ch"], ["K", "amp"], ["Ri", "chtung</w>"], ["S", "ol"], ["Sch", "lag"], ["Som", "e</w>"], ["c", "le"], ["gr", "ei"], ["ho", "ch"], ["ho", "hen</w>"], ["kämp", "fen</w>"], ["la", "dies</w>"], ["laugh", "ing</w>"], ["publi", "c</w>"], ["run", "nen</w>"], ["sh", "ow</w>"], ["Ba", "sketball</w>"], ["C", "he"], ["Schwarz", "</w>"], ["com", "puter</w>"], ["ell", "er</w>"], ["equip", "ment</w>"], ["f", "lu"], ["f", "läche</w>"], ["f", "re"], ["grü", "n</w>"], ["her", "unter</w>"], ["instrum", "ents</w>"], ["r", "ing</w>"], ["some", "one</w>"], ["3", "</w>"], ["Bet", "on"], ["Gelän", "der</w>"], ["Gra", "ffiti</w>"], ["West", "e</w>"], ["c", "ouch</w>"], ["d", "em"], ["di", "spla"], ["dunkl", "en</w>"], ["fi", "sh</w>"], ["le", "y</w>"], ["lie", "gen</w>"], ["n", "ed</w>"], ["sh", "oul"], ["sk", "y</w>"], ["un", "ten</w>"], ["ve", "hi"], ["A", "k"], ["H", "aus</w>"], ["K", "an"], ["Schutz", "hel"], ["T", "o"], ["blau", "e</w>"], ["fla", "g</w>"], ["in", "g"], ["photogra", "ph"], ["pic", "tures</w>"], ["pla", "stic</w>"], ["ram", "p</w>"], ["row", "</w>"], ["st", "o"], ["st", "uhl</w>"], ["su", "n</w>"], ["tre", "ten</w>"], ["wh", "ere</w>"], ["z", "er"], ["z", "z"], ["zu", "schauen</w>"], ["J", "o"], ["Kopfbedeck", "ung</w>"], ["Pla", "tz</w>"], ["Sp", "rung</w>"], ["Zuschau", "er</w>"], ["all", "y</w>"], ["ath", "on</w>"], ["b", "ed</w>"], ["con", "cre"], ["concre", "te</w>"], ["do", "ck</w>"], ["f", "ei"], ["g", "lo"], ["n", "ack"], ["ph", "ones</w>"], ["play", "ground</w>"], ["po", "ses</w>"], ["ro", "ck"], ["smi", "tt"], ["st", "ation</w>"], ["swe", "atshirt</w>"], ["tra", "il</w>"], ["w", "ri"], ["whi", "ch</w>"], ["woo", "ds</w>"], ["wor", "ks</w>"], ["än", "gt</w>"], ["Ba", "hn"], ["Erwachsen", "e</w>"], ["K", "u"], ["Sei", "l</w>"], ["Zei", "tung</w>"], ["be", "ard</w>"], ["be", "u"], ["c", "am"], ["di", "re"], ["en", "ds</w>"], ["f", "lan"], ["h", "app"], ["i", "eren</w>"], ["skir", "t</w>"], ["st", "rei"], ["wat", "er"], ["Mann", "es</w>"], ["Z", "ig"], ["al", "te</w>"], ["asiat", "ischer</w>"], ["em", "s</w>"], ["fe", "st</w>"], ["fi", "re"], ["ge", "p"], ["hal", "b</w>"], ["hin", "auf</w>"], ["mid", "air</w>"], ["mitt", "l"], ["read", "s</w>"], ["uh", "</w>"], ["w", "el"], ["win", "ter</w>"], ["z", "en"], ["B", "al"], ["Musi", "k</w>"], ["Un", "ter"], ["b", "ro"], ["blon", "des</w>"], ["d", "or</w>"], ["el", "y</w>"], ["gg", "les</w>"], ["ju", "st</w>"], ["sho", "v"], ["su", "its</w>"], ["D", "o"], ["Sch", "o"], ["c", "owboy</w>"], ["co", "un"], ["cro", "ss"], ["d", "ding</w>"], ["foo", "t</w>"], ["kari", "erten</w>"], ["num", "ber</w>"], ["ou", "ri"], ["sc", "ope</w>"], ["sh", "e"], ["t", "ly</w>"], ["t", "un"], ["w", "n</w>"], ["B", "li"], ["Sch", "auf"], ["am", "pe</w>"], ["at", "ors</w>"], ["b", "or"], ["braun", "e</w>"], ["d", "ings</w>"], ["da", "von</w>"], ["di", "stance</w>"], ["dunkel", "häu"], ["ge", "schäft</w>"], ["genie", "ßt</w>"], ["li", "gh"], ["lin", "ed</w>"], ["m", "ehrere</w>"], ["um", "s</w>"], ["un", "ger</w>"], ["ve", "ge"], ["ver", "schnei"], ["ß", "er"], ["überqu", "eren</w>"], ["Bau", "m"], ["De", "cke</w>"], ["Fel", "s"], ["H", "of</w>"], ["J", "emand</w>"], ["Kunst", "stück</w>"], ["L", "ei"], ["Ver", "k"], ["att", "ire</w>"], ["aus", "ge"], ["ba", "gs</w>"], ["ck", "ey"], ["di", "on</w>"], ["f", "et"], ["isch", "es</w>"], ["li", "st"], ["ra", "in</w>"], ["re", "par"], ["s", "l"], ["sch", "ool</w>"], ["se", "ated</w>"], ["st", "or"], ["tow", "ard</w>"], ["zu", "sehen</w>"], ["Ju", "gend"], ["K", "ra"], ["Le", "ben"], ["S", "pa"], ["Zuschau", "ern</w>"], ["ani", "m"], ["be", "er</w>"], ["ele", "c"], ["gi", "bt</w>"], ["gri", "ll</w>"], ["hem", "d</w>"], ["ie", "f"], ["in", "nen</w>"], ["k", "ar"], ["l", "ying</w>"], ["la", "cht</w>"], ["le", "ft</w>"], ["mittl", "eren</w>"], ["p", "es</w>"], ["pla", "ce</w>"], ["sp", "ap"], ["st", "ik"], ["stä", "dti"], ["v", "en</w>"], ["w", "hat</w>"], ["whe", "el"], ["Feuerw", "ehr"], ["Gem", "ü"], ["Kin", "der"], ["Mau", "er</w>"], ["Out", "fit</w>"], ["Schir", "m</w>"], ["ba", "sk"], ["benu", "tzt</w>"], ["bl", "o"], ["bo", "x</w>"], ["coo", "king</w>"], ["cu", "tting</w>"], ["ent", "lichen</w>"], ["fil", "led</w>"], ["führ", "en</w>"], ["gel", "ber</w>"], ["gel", "n</w>"], ["k", "la"], ["schri", "ft</w>"], ["sk", "i"], ["st", "ein"], ["t", "ent</w>"], ["ti", "me</w>"], ["ul", "a</w>"], ["vest", "s</w>"], ["ä", "t</w>"], ["C", "on"], ["K", "or"], ["Li", "ttle</w>"], ["Men", "ge</w>"], ["Pap", "ier</w>"], ["Sol", "d"], ["Spiel", "platz</w>"], ["Stü", "ck</w>"], ["b", "är"], ["bre", "tt</w>"], ["buil", "dings</w>"], ["d", "a</w>"], ["new", "spap"], ["pul", "ling</w>"], ["ri", "ght</w>"], ["rä", "dern</w>"], ["sh", "ore</w>"], ["Base", "ballspieler</w>"], ["Ein", "ige</w>"], ["Fre", "un"], ["G", "ir"], ["Ge", "schäf"], ["Leben", "smitt"], ["R", "ock</w>"], ["Sch", "ür"], ["Schau", "kel</w>"], ["T", "ü"], ["Zig", "ar"], ["bl", "an"], ["ci", "gar"], ["compe", "ti"], ["con", "c"], ["cre", "am</w>"], ["et", "ing</w>"], ["g", "än"], ["l", "a</w>"], ["mar", "kt</w>"], ["neh", "men</w>"], ["oran", "gen</w>"], ["pre", "par"], ["ri", "der</w>"], ["ri", "esi"], ["ti", "e</w>"], ["unter", "hält</w>"], [";", "</w>"], ["Al", "ters</w>"], ["B", "rau"], ["D", "a"], ["Kamp", "f"], ["Men", "sch</w>"], ["P", "ool</w>"], ["ach", "ing</w>"], ["appe", "ars</w>"], ["arr", "en</w>"], ["au", "di"], ["b", "rin"], ["b", "s</w>"], ["berei", "t</w>"], ["cli", "ff</w>"], ["cour", "t</w>"], ["cro", "ssing</w>"], ["groß", "es</w>"], ["k", "ten</w>"], ["sc", "a"], ["stell", "t</w>"], ["t", "ers"], ["w", "rest"], ["zu", "sieht</w>"], ["Fuß", "gän"], ["K", "lass"], ["L", "and"], ["Mi", "tte</w>"], ["Sof", "a</w>"], ["Sur", "fer</w>"], ["Wei", "hn"], ["Weihn", "ach"], ["af", "e</w>"], ["ar", "ded</w>"], ["au", "se</w>"], ["b", "an</w>"], ["ben", "einander</w>"], ["ct", "ators</w>"], ["e", "dge</w>"], ["g", "end</w>"], ["in", "er</w>"], ["k", "amp"], ["k", "on"], ["mounta", "ins</w>"], ["na", "he</w>"], ["ne", "beneinander</w>"], ["p", "or"], ["ro", "ll"], ["schein", "t</w>"], ["sh", "owing</w>"], ["zu", "schaut</w>"], ["Au", "gen</w>"], ["Bli", "ck</w>"], ["P", "fa"], ["Ra", "sen</w>"], ["af", "ri"], ["b", "ru"], ["ba", "thing</w>"], ["boo", "ts</w>"], ["bu", "b"], ["ct", "or</w>"], ["ge", "bäu"], ["haari", "ge</w>"], ["li", "la</w>"], ["op", "h"], ["p", "ping</w>"], ["s", "wim"], ["ti", "g</w>"], ["ti", "ge</w>"], ["–", "</w>"], ["C", "h"], ["C", "hin"], ["F", "la"], ["Fo", "tos</w>"], ["Tur", "n"], ["Ty", "p</w>"], ["Wo", "men</w>"], ["ar", "ts</w>"], ["arb", "y</w>"], ["au", "ßer"], ["bi", "et</w>"], ["dress", "es</w>"], ["em", "and"], ["fi", "ts</w>"], ["gel", "b</w>"], ["j", "emand"], ["jers", "ey</w>"], ["nach", "ts</w>"], ["ne", "arby</w>"], ["perform", "s</w>"], ["s", "on</w>"], ["sch", "win"], ["st", "ing</w>"], ["ti", "gen</w>"], ["ünst", "ler</w>"], ["B", "ier</w>"], ["D", "ach</w>"], ["E", "l"], ["Einkauf", "s"], ["Gegen", "stand</w>"], ["K", "er"], ["Schne", "e"], ["Tri", "ko"], ["Uni", "form</w>"], ["Zigar", "ette</w>"], ["ap", "ron</w>"], ["carri", "es</w>"], ["di", "e"], ["dri", "ving</w>"], ["fe", "w</w>"], ["fri", "ends</w>"], ["hin", "ten</w>"], ["hor", "ses</w>"], ["jun", "gen</w>"], ["l", "len</w>"], ["le", "ad"], ["ma", "ke</w>"], ["musi", "ci"], ["p", "at"], ["per", "form</w>"], ["rel", "a"], ["stre", "ckt</w>"], ["ti", "al</w>"], ["versu", "chen</w>"], ["y", "a"], ["ycli", "sts</w>"], ["Blum", "en"], ["N", "ummer</w>"], ["Son", "ne</w>"], ["St", "a"], ["W", "inter"], ["bik", "er</w>"], ["bow", "ling</w>"], ["ca", "ke</w>"], ["ch", "en"], ["d", "o</w>"], ["e", "a"], ["f", "äl"], ["ho", "se</w>"], ["i", "er"], ["je", "kt</w>"], ["lan", "g"], ["lea", "ves</w>"], ["mehr", "eren</w>"], ["sk", "op</w>"], ["ss", "el</w>"], ["t", "ä"], ["ta", "sche</w>"], ["tei", "len</w>"], ["up", "p"], ["v", "ari"], ["M", "und</w>"], ["Sch", "al</w>"], ["Stad", "t"], ["T", "au"], ["am", "mer</w>"], ["beoba", "chten</w>"], ["bo", "x"], ["c", "up</w>"], ["car", "s</w>"], ["cigar", "ette</w>"], ["den", "ts</w>"], ["f", "ängt</w>"], ["ff", "er"], ["flow", "er</w>"], ["fru", "it</w>"], ["k", "n"], ["mp", "ol"], ["pain", "ted</w>"], ["par", "ked</w>"], ["s", "au"], ["s", "o</w>"], ["sc", "u"], ["struc", "ture</w>"], ["te", "ams</w>"], ["to", "o</w>"], ["trin", "ken</w>"], ["B", "ad"], ["D", "i"], ["Flag", "ge</w>"], ["Triko", "ts</w>"], ["ath", "le"], ["b", "elt</w>"], ["d", "el</w>"], ["d", "le</w>"], ["ey", "es</w>"], ["farben", "fro"], ["ge", "m"], ["go", "ggles</w>"], ["ha", "ki"], ["kni", "et</w>"], ["le", "gt</w>"], ["m", "other</w>"], ["na", "h"], ["rau", "cht</w>"], ["sh", "ot</w>"], ["smi", "le</w>"], ["snow", "boarder</w>"], ["st", "om"], ["sur", "fer</w>"], ["tal", "ks</w>"], ["u", "ses</w>"], ["un", "t</w>"], ["ven", "dor</w>"], ["w", "and"], ["wer", "fen</w>"], ["öff", "entlichen</w>"], ["Ar", "men</w>"], ["C", "ow"], ["Fer", "ne</w>"], ["Holz", "</w>"], ["Musi", "k"], ["Schür", "ze</w>"], ["Snow", "boarder</w>"], ["Spiel", "zeu"], ["St", "ange</w>"], ["Stu", "fen</w>"], ["T", "ro"], ["Teena", "ger</w>"], ["b", "an"], ["bei", "de</w>"], ["betra", "chten</w>"], ["bo", "ttle</w>"], ["di", "o</w>"], ["dr", "ums</w>"], ["fl", "ying</w>"], ["fli", "p</w>"], ["gest", "ell"], ["l", "ar</w>"], ["l", "en"], ["li", "t</w>"], ["mar", "tial</w>"], ["n", "ic</w>"], ["ni", "cht</w>"], ["par", "ti"], ["ro", "tes</w>"], ["rut", "scht</w>"], ["sch", "u"], ["skateboar", "der</w>"], ["smo", "king</w>"], ["vehi", "cle</w>"], ["verschnei", "ten</w>"], ["viol", "ett"], ["z", "ur"], ["B", "ack"], ["B", "ow"], ["Geh", "steig</w>"], ["R", "ampe</w>"], ["Ver", "anstaltung</w>"], ["W", "anderer</w>"], ["al", "en</w>"], ["co", "ffee</w>"], ["conc", "ert</w>"], ["d", "el"], ["gh", "tly</w>"], ["grü", "ner</w>"], ["hi", "r"], ["hi", "t</w>"], ["hom", "e</w>"], ["m", "ulti"], ["mü", "tze</w>"], ["p", "it"], ["rock", "y</w>"], ["s", "am</w>"], ["sp", "ra"], ["Bo", "y</w>"], ["Ei", "s"], ["G", "ol"], ["Gro", "up</w>"], ["Sch", "li"], ["Som", "e"], ["St", "re"], ["Sur", "f"], ["al", "le</w>"], ["au", "er</w>"], ["com", "ing</w>"], ["fet", "y</w>"], ["fla", "gs</w>"], ["fol", "gt</w>"], ["g", "ym"], ["geb", "ung</w>"], ["gel", "e"], ["gu", "ckt</w>"], ["h", "l</w>"], ["jack", "ets</w>"], ["k", "u"], ["ki", "cking</w>"], ["newspap", "er</w>"], ["pain", "t</w>"], ["prepar", "es</w>"], ["ra", "i"], ["sa", "fety</w>"], ["sch", "i"], ["sch", "mu"], ["swin", "ging</w>"], ["tu", "ch</w>"], ["u", "</w>"], ["verschie", "den"], ["viel", "e</w>"], ["w", "ä"], ["wa", "ves</w>"], ["yo", "unger</w>"], ["Poli", "zi"], ["Tennis", "ball</w>"], ["V", "o"], ["al", "es</w>"], ["al", "ley</w>"], ["außer", "halb</w>"], ["befest", "ig"], ["blon", "den</w>"], ["bu", "cket</w>"], ["ca", "se</w>"], ["ck", "er</w>"], ["convers", "ation</w>"], ["costum", "es</w>"], ["d", "der</w>"], ["di", "ffer"], ["g", "old</w>"], ["ga", "ther</w>"], ["gentle", "man</w>"], ["glo", "ves</w>"], ["h", "ar"], ["k", "en"], ["k", "öp"], ["kamp", "f</w>"], ["n", "o</w>"], ["ori", "ent"], ["practi", "cing</w>"], ["ra", "il</w>"], ["sp", "or"], ["spe", "ctators</w>"], ["ss", "en"], ["st", "ro"], ["t", "ary</w>"], ["t", "at"], ["zei", "t</w>"], ["zo", "gen</w>"], ["är", "m"], ["Che", "er"], ["Gemü", "se</w>"], ["K", "le"], ["Kostü", "men</w>"], ["Sonnen", "unter"], ["ani", "schen</w>"], ["be", "arded</w>"], ["bun", "ch</w>"], ["bär", "tiger</w>"], ["c", "ement</w>"], ["c", "leaning</w>"], ["competi", "tion</w>"], ["da", "ss</w>"], ["differ", "ent</w>"], ["for", "men</w>"], ["grei", "ft</w>"], ["la", "dder</w>"], ["la", "p"], ["list", "ening</w>"], ["on", "loo"], ["par", "king</w>"], ["ro", "of</w>"], ["s", "ame</w>"], ["sc", "ene</w>"], ["sc", "oo"], ["st", "ern</w>"], ["th", "is</w>"], ["zi", "ehen</w>"], ["Asi", "at"], ["Au", "f</w>"], ["Ba", "seball</w>"], ["Bet", "t</w>"], ["Instrum", "en"], ["J", "a"], ["S", "we"], ["St", "atue</w>"], ["bik", "ini</w>"], ["blan", "ket</w>"], ["blau", "es</w>"], ["cti", "ve</w>"], ["ga", "z"], ["he", "a"], ["hol", "d</w>"], ["it", "ems</w>"], ["k", "ti"], ["lan", "ge</w>"], ["m", "em"], ["o", "se</w>"], ["pro", "du"], ["sig", "ns</w>"], ["skateboar", "ding</w>"], ["st", "aring</w>"], ["st", "at"], ["st", "än"], ["sur", "ft</w>"], ["th", "ere</w>"], ["vi", "du"], ["wa", "it</w>"], ["z", "ert</w>"], ["zur", "ü"], ["Auf", "schrift</w>"], ["Kap", "u"], ["Klei", "dern</w>"], ["Musi", "ker</w>"], ["Na", "cht</w>"], ["Poli", "z"], ["audi", "ence</w>"], ["ballo", "on</w>"], ["be", "we"], ["bic", "ycles</w>"], ["bu", "ll</w>"], ["c", "ut</w>"], ["de", "sk</w>"], ["de", "ssen</w>"], ["drin", "ks</w>"], ["emp", "ty</w>"], ["fotografi", "ert</w>"], ["gelb", "em</w>"], ["gi", "ving</w>"], ["h", "au"], ["hil", "ft</w>"], ["hr", "</w>"], ["in", "es</w>"], ["kau", "fen</w>"], ["klett", "ern</w>"], ["köp", "fi"], ["la", "chen</w>"], ["la", "ge</w>"], ["la", "wn</w>"], ["li", "ches</w>"], ["li", "ert</w>"], ["me", "al</w>"], ["p", "ped</w>"], ["pi", "le</w>"], ["r", "and"], ["rail", "ing</w>"], ["sin", "e"], ["t", "y"], ["ta", "ck"], ["u", "f"], ["vari", "ous</w>"], ["ver", "ti"], ["z", "ed</w>"], ["Basket", "ballspieler</w>"], ["Kostü", "m</w>"], ["Mann", "schaft</w>"], ["Sch", "ie"], ["Ski", "fahrer</w>"], ["Some", "one</w>"], ["Sonnenunter", "gang</w>"], ["St", "ro"], ["T", "än"], ["W", "or"], ["aus", "rüstung</w>"], ["bei", "den</w>"], ["beu", "gt</w>"], ["ck", "ten</w>"], ["coun", "try</w>"], ["ge", "ts</w>"], ["gel", "be</w>"], ["leap", "s</w>"], ["männ", "liche</w>"], ["onloo", "kers</w>"], ["p", "il"], ["pla", "t"], ["re", "den</w>"], ["ri", "st"], ["ro", "deo</w>"], ["schrei", "bt</w>"], ["sh", "oo"], ["sk", "i</w>"], ["sp", "ort"], ["städti", "schen</w>"], ["t", "sche</w>"], ["ver", "k"], ["ü", "st</w>"], ["A", "rt</w>"], ["F", "e"], ["Gir", "l</w>"], ["Ha", "are</w>"], ["Her", "r</w>"], ["Hü", "ten</w>"], ["Klass", "en"], ["Lei", "ter</w>"], ["M", "at"], ["Ma", "schine</w>"], ["Ne", "w</w>"], ["Polizi", "sten</w>"], ["Se", "chs</w>"], ["Sp", "ie"], ["Z", "elt</w>"], ["b", "at"], ["be", "g"], ["bow", "l</w>"], ["displa", "y</w>"], ["fall", "en</w>"], ["for", "e</w>"], ["gath", "ering</w>"], ["gebäu", "de</w>"], ["ho", "t</w>"], ["m", "auer</w>"], ["plan", "e</w>"], ["poin", "ting</w>"], ["s", "ort</w>"], ["schö", "nen</w>"], ["sli", "ding</w>"], ["surf", "ing</w>"], ["un", "befestig"], ["vege", "tables</w>"], ["überqu", "ert</w>"], ["B", "ul"], ["C", "o"], ["Da", "men</w>"], ["Flu", "g"], ["Indi", "an</w>"], ["K", "rei"], ["Ka", "ja"], ["L", "ap"], ["L", "au"], ["M", "it"], ["Sch", "rei"], ["Tü", "r</w>"], ["U", "fer</w>"], ["Zie", "gel"], ["ar", "t"], ["ati", "schen</w>"], ["bask", "et</w>"], ["bir", "d</w>"], ["bl", "ä"], ["c", "ers</w>"], ["c", "lass"], ["cha", "sing</w>"], ["cla", "ss</w>"], ["fa", "cing</w>"], ["fe", "et</w>"], ["h", "of</w>"], ["ho", "le</w>"], ["hö", "rt</w>"], ["indi", "vidu"], ["ka", "ya"], ["nack", "tem</w>"], ["ob", "ser"], ["pre", "s"], ["ro", "th"], ["s", "al"], ["schla", "gen</w>"], ["sp", "ort</w>"], ["ss", "es</w>"], ["stre", "ets</w>"], ["tr", "un"], ["versamm", "eln</w>"], ["w", "et</w>"], ["ü", "hr"], ["B", "ar</w>"], ["D", "ie"], ["Fahr", "rad"], ["Ob", "st</w>"], ["Swe", "atshirt</w>"], ["Z", "a"], ["b", "ers</w>"], ["be", "fore</w>"], ["bel", "eu"], ["bo", "ot</w>"], ["c", "ed</w>"], ["c", "ir"], ["ch", "teten</w>"], ["comp", "eting</w>"], ["fro", "amerikan"], ["g", "y"], ["gem", "ein"], ["gestreif", "tem</w>"], ["h", "nen</w>"], ["happ", "y</w>"], ["hel", "me"], ["helme", "ts</w>"], ["kei", "t</w>"], ["lü", "ck"], ["ma", "sk</w>"], ["pa", "ss</w>"], ["plat", "form</w>"], ["sil", "ver</w>"], ["sp", "o"], ["sp", "orts</w>"], ["spea", "king</w>"], ["st", "op</w>"], ["stre", "t"], ["w", "är"], ["we", "dding</w>"], ["x", "oph"], ["z", "t</w>"], ["C", "l"], ["Ki", "ds</w>"], ["L", "eine</w>"], ["Ru", "tsche</w>"], ["Sch", "uhen</w>"], ["Si", "x</w>"], ["T", "or</w>"], ["T", "ouri"], ["ass", "en</w>"], ["bu", "sine"], ["c", "ts</w>"], ["ch", "est"], ["ch", "in"], ["class", "room</w>"], ["g", "le</w>"], ["g", "li"], ["hu", "ge</w>"], ["j", "ün"], ["k", "ap"], ["le", "eren</w>"], ["ligh", "ts</w>"], ["ma", "schine</w>"], ["mat", "ch</w>"], ["mi", "r"], ["or", "k</w>"], ["ou", "se</w>"], ["roth", "aari"], ["sc", "ulp"], ["spre", "chen</w>"], ["surf", "board</w>"], ["tr", "an"], ["tri", "es</w>"], ["ur", "al</w>"], ["ur", "ing</w>"], ["v", "y</w>"], ["wer", "k</w>"], ["zei", "ch"], ["4", "</w>"], ["B", "runnen</w>"], ["Ber", "ei"], ["Bik", "ini</w>"], ["Ei", "mer</w>"], ["Gri", "ll</w>"], ["Ho", "ckey"], ["Kopf", "hör"], ["L", "äufer</w>"], ["Par", "ade</w>"], ["Pfa", "d</w>"], ["Poliz", "ist</w>"], ["R", "ol"], ["S", "hir"], ["Sch", "lä"], ["T", "an"], ["V", "ater</w>"], ["Wal", "d"], ["West", "en</w>"], ["Wo", "hn"], ["blon", "der</w>"], ["bo", "den</w>"], ["bri", "de</w>"], ["ck", "er"], ["climb", "s</w>"], ["de", "s"], ["e", "cke</w>"], ["figh", "ting</w>"], ["g", "b"], ["genie", "ßen</w>"], ["haari", "ger</w>"], ["ief", "eln</w>"], ["klei", "de"], ["li", "la"], ["pur", "se</w>"], ["r", "ö"], ["scre", "en</w>"], ["se", "tzt</w>"], ["sin", "gs</w>"], ["sk", "e</w>"], ["sti", "cks</w>"], ["stu", "dents</w>"], ["tradition", "al</w>"], ["w", "ra"], ["wa", "its</w>"], ["Bade", "anzug</w>"], ["Basket", "ball"], ["C", "ol"], ["Com", "puter</w>"], ["D", "iese</w>"], ["E", "is</w>"], ["F", "isch</w>"], ["Fahr", "zeug</w>"], ["Gesi", "ch"], ["K", "ir"], ["Kle", "tter"], ["P", "ass"], ["Rei", "fen</w>"], ["Ro", "deo</w>"], ["S", "</w>"], ["Sei", "fen"], ["Stü", "hlen</w>"], ["Tri", "ck</w>"], ["Um", "gebung</w>"], ["Vor", "der"], ["ab", "ge"], ["anim", "al</w>"], ["asi", "atischen</w>"], ["bo", "tt"], ["brea", "k</w>"], ["c", "rou"], ["can", "o"], ["ch", "te</w>"], ["co", "unter</w>"], ["d", "au"], ["de", "cor"], ["dr", "y</w>"], ["dur", "ch"], ["ei", "be</w>"], ["eri", "schen</w>"], ["fü", "ll"], ["gel", "t</w>"], ["gen", "den</w>"], ["h", "ang</w>"], ["in", "ger</w>"], ["ja", "gt</w>"], ["ki", "ssing</w>"], ["kom", "men</w>"], ["m", "all</w>"], ["m", "as</w>"], ["me", "di"], ["mili", "tary</w>"], ["mir", "ro"], ["n", "ung</w>"], ["re", "u"], ["se", "en</w>"], ["sh", "ed</w>"], ["sil", "ber"], ["swe", "e"], ["t", "ops</w>"], ["t", "own</w>"], ["ts", "kleidung</w>"], ["vi", "si"], ["wat", "te</w>"], ["wei", "bli"], ["wi", "l"], ["En", "de</w>"], ["Feu", "er</w>"], ["G", "ei"], ["Gelän", "dem"], ["Geträn", "k</w>"], ["Mikro", "ph"], ["N", "o"], ["O", "ver"], ["Re", "gen</w>"], ["Schlag", "zeug</w>"], ["Schrei", "b"], ["b", "ü"], ["ck", "ed</w>"], ["de", "o"], ["ei", "g"], ["elec", "tri"], ["em", "on"], ["ent", "span"], ["f", "el</w>"], ["ge", "wi"], ["gekleide", "ten</w>"], ["gelb", "es</w>"], ["k", "haki"], ["k", "un"], ["la", "s</w>"], ["lä", "n"], ["mar", "athon</w>"], ["o", "hne</w>"], ["ran", "ge</w>"], ["s", "of"], ["s", "or"], ["si", "te</w>"], ["sk", "ating</w>"], ["sk", "ier</w>"], ["st", "air"], ["st", "roller</w>"], ["t", "au"], ["ta", "g</w>"], ["ur", "ban</w>"], ["wal", "k"], ["wim", "men</w>"], ["wo", "bei</w>"], ["ä", "um"], ["5", "</w>"], ["Ber", "g"], ["Brau", "t</w>"], ["Erwachsen", "er</w>"], ["Kon", "zert</w>"], ["Mi", "tt"], ["P", "flan"], ["Pla", "stik"], ["Regen", "schirm</w>"], ["Schutzhel", "m</w>"], ["Sold", "aten</w>"], ["W", "ellen</w>"], ["Y", "ork</w>"], ["ar", "ben</w>"], ["braun", "em</w>"], ["d", "in"], ["di", "ving</w>"], ["dre", "ht</w>"], ["en", "des</w>"], ["er", "bla"], ["et", "t</w>"], ["fem", "ales</w>"], ["grau", "em</w>"], ["grü", "ne</w>"], ["il", "y</w>"], ["in", "mitten</w>"], ["kne", "eling</w>"], ["la", "p</w>"], ["le", "sen</w>"], ["n", "ie"], ["ne", "a"], ["out", "fits</w>"], ["p", "pi"], ["riesi", "gen</w>"], ["s", "ement</w>"], ["sam", "m"], ["schwin", "gt</w>"], ["shoul", "der</w>"], ["sun", "set</w>"], ["tal", "k</w>"], ["throw", "</w>"], ["ti", "ert</w>"], ["w", "ur"], ["walk", "way</w>"], ["wei", "ter"], ["wri", "ting</w>"], ["Bad", "eh"], ["Erwach", "senen</w>"], ["Fahr", "er</w>"], ["Fo", "togra"], ["Ge", "gend</w>"], ["H", "ö"], ["Hand", "schuhen</w>"], ["Instrum", "ent</w>"], ["L", "uf"], ["Le", "der"], ["Motor", "radfahrer</w>"], ["Park", "platz</w>"], ["Sch", "w"], ["So", "hn</w>"], ["Uni", "formen</w>"], ["Vol", "leyball</w>"], ["W", "in"], ["an", "ten</w>"], ["ander", "es</w>"], ["attemp", "ting</w>"], ["b", "are"], ["b", "ung</w>"], ["ber", "ühr"], ["bl", "ock</w>"], ["d", "ert</w>"], ["ey", "board</w>"], ["gemein", "sam</w>"], ["gep", "fla"], ["hü", "p"], ["ko", "stü"], ["lin", "g"], ["op", "er"], ["re", "c"], ["rei", "ten</w>"], ["rist", "mas</w>"], ["ro", "</w>"], ["run", "ner</w>"], ["s", "el</w>"], ["s", "wi"], ["sa", "il"], ["scoo", "ter</w>"], ["sh", "ad"], ["slee", "p</w>"], ["sol", "di"], ["t", "ur</w>"], ["v", "an</w>"], ["wa", "ving</w>"], ["älter", "en</w>"], ["Ber", "gen</w>"], ["Berei", "ch</w>"], ["F", "l"], ["Fel", "d"], ["Gebäu", "den</w>"], ["Geländem", "o"], ["Geländemo", "tor"], ["Kinder", "wagen</w>"], ["Kor", "b</w>"], ["N", "ach"], ["Seifen", "bla"], ["Shir", "ts</w>"], ["Sp", "rin"], ["Straß", "en</w>"], ["Straßen", "ecke</w>"], ["Straßen", "rand</w>"], ["Wei", "ß</w>"], ["Wer", "k"], ["all", "s</w>"], ["at", "ten"], ["at", "ten</w>"], ["balan", "ci"], ["bl", "owing</w>"], ["bo", "y"], ["c", "and"], ["c", "ele"], ["cl", "ou"], ["cour", "se</w>"], ["ex", "am"], ["fi", "ve</w>"], ["g", "ern</w>"], ["lächeln", "d</w>"], ["ma", "de</w>"], ["n", "ers</w>"], ["off", "enen</w>"], ["rä", "der</w>"], ["s", "band</w>"], ["schü", "tt"], ["ssi", "on</w>"], ["st", "erten</w>"], ["star", "rt</w>"], ["t", "eln</w>"], ["t", "ü"], ["to", "wi"], ["viol", "in</w>"], ["w", "ö"], ["we", "ar</w>"], ["wen", "det</w>"], ["ö", "cken</w>"], ["öp", "fen</w>"], ["Ar", "me</w>"], ["Arbei", "t</w>"], ["Bau", "stelle</w>"], ["F", "ü"], ["Fer", "n"], ["G", "u"], ["K", "at"], ["La", "den</w>"], ["Mikroph", "on</w>"], ["S", "än"], ["Scho", "ß</w>"], ["T", "or"], ["Te", "am</w>"], ["ad", "verti"], ["an", "gen</w>"], ["ar", "n"], ["arm", "t</w>"], ["ba", "se</w>"], ["bal", "d</w>"], ["bub", "bles</w>"], ["busine", "ss</w>"], ["c", "ap"], ["clo", "se</w>"], ["f", "fen</w>"], ["fa", "ther</w>"], ["ful", "ly</w>"], ["g", "oo"], ["gym", "na"], ["l", "and</w>"], ["la", "den</w>"], ["m", "s</w>"], ["mirro", "r</w>"], ["offic", "er</w>"], ["over", "looking</w>"], ["parti", "ci"], ["pink", "farbenen</w>"], ["pro", "fe"], ["ra", "in"], ["re", "fle"], ["rol", "ling</w>"], ["sa", "ys</w>"], ["sch", "wimmen</w>"], ["schwarz", "es</w>"], ["sin", "gen</w>"], ["spri", "tzt</w>"], ["ssi", "on"], ["st", "y"], ["th", "em"], ["um", "armt</w>"], ["w", "ell</w>"], ["wach", "senen</w>"], ["zurü", "ck</w>"], ["B", "M"], ["Jack", "en</w>"], ["Kra", "watte</w>"], ["L", "and</w>"], ["Mi", "li"], ["Mü", "ll"], ["P", "ause</w>"], ["R", "ot</w>"], ["Skateboar", "der</w>"], ["Sp", "i"], ["W", "aren</w>"], ["ar", "ri"], ["ati", "ve</w>"], ["ballo", "ons</w>"], ["c", "y</w>"], ["cele", "bra"], ["con", "ta"], ["d", "ent</w>"], ["di", "scu"], ["dunkelhäu", "tiger</w>"], ["f", "oll"], ["f", "ten</w>"], ["fa", "st</w>"], ["fi", "xing</w>"], ["gra", "sbe"], ["grün", "es</w>"], ["l", "ow</w>"], ["l", "ung</w>"], ["le", "ans</w>"], ["m", "at</w>"], ["of", "fi"], ["off", "en"], ["orange", "farbener</w>"], ["pla", "te</w>"], ["pu", "tzt</w>"], ["s", "ri"], ["t", "ballspieler</w>"], ["tra", "in"], ["un", "gs"], ["we", "gs</w>"], ["Back", "stein"], ["Com", "pu"], ["Con", "struction</w>"], ["E", "</w>"], ["H", "in"], ["Jugend", "licher</w>"], ["L", "ad"], ["Me", "er"], ["S", "ie"], ["Schreib", "tisch</w>"], ["T", "anz"], ["Vo", "gel</w>"], ["Vorder", "grund</w>"], ["Wa", "sch"], ["ach", "es</w>"], ["al", "one</w>"], ["arti", "st</w>"], ["b", "and"], ["b", "b"], ["b", "in"], ["ba", "th"], ["bri", "ghtly</w>"], ["c", "ting</w>"], ["cl", "own</w>"], ["col", "lar</w>"], ["do", "or"], ["e", "k</w>"], ["el", "las</w>"], ["fa", "ces</w>"], ["fore", "ground</w>"], ["ge", "gn"], ["glei", "ch</w>"], ["gy", "m</w>"], ["hel", "ping</w>"], ["i", "val</w>"], ["kur", "z</w>"], ["le", "g</w>"], ["lea", "ther</w>"], ["li", "es</w>"], ["li", "fe</w>"], ["man", "n</w>"], ["musici", "ans</w>"], ["or", "d"], ["p", "rin"], ["repar", "iert</w>"], ["ri", "e"], ["run", "ette</w>"], ["schau", "k"], ["sri", "chter</w>"], ["swi", "m</w>"], ["ters", "u"], ["tun", "nel</w>"], ["umbr", "ellas</w>"], ["un", "tersu"], ["ur", "ch</w>"], ["v", "</w>"], ["wach", "sen"], ["é", "</w>"], ["An", "z"], ["B", "lau"], ["B", "re"], ["C", "owboy</w>"], ["Cow", "boy"], ["D", "ra"], ["Fahr", "radfahrer</w>"], ["Gar", "ten</w>"], ["Ku", "chen</w>"], ["O", "r"], ["Par", "ty</w>"], ["R", "ad</w>"], ["S", "ie</w>"], ["Sand", "alen</w>"], ["Sch", "atten</w>"], ["Sch", "il"], ["Schn", "au"], ["Si", "cher"], ["Tan", "k"], ["Th", "e"], ["a", "sleep</w>"], ["all", "ow</w>"], ["am", "m</w>"], ["b", "is</w>"], ["ball", "s</w>"], ["be", "di"], ["comp", "le"], ["dau", "gh"], ["e", "f"], ["e", "ys</w>"], ["electri", "c</w>"], ["enjo", "y</w>"], ["farben", "e</w>"], ["füll", "ten</w>"], ["g", "anz</w>"], ["g", "lück"], ["ge", "biet</w>"], ["gegen", "einander</w>"], ["gekleide", "tes</w>"], ["gestell", "t</w>"], ["gi", "ant</w>"], ["gu", "t</w>"], ["h", "aus</w>"], ["head", "phones</w>"], ["hell", "häu"], ["kur", "zer</w>"], ["le", "gs</w>"], ["me", "at</w>"], ["ow", "er</w>"], ["p", "her</w>"], ["p", "le"], ["re", "pa"], ["sk", "ate</w>"], ["sp", "en"], ["stre", "cke</w>"], ["un", "ch</w>"], ["verschieden", "e</w>"], ["vol", "l</w>"], ["vol", "len</w>"], ["whe", "el</w>"], ["ö", "n"], ["0", "</w>"], ["Bow", "ling"], ["Einkaufs", "wagen</w>"], ["Fahr", "rädern</w>"], ["Foo", "tballspieler</w>"], ["Gro", "ß"], ["Kun", "den</w>"], ["La", "st"], ["Mo", "bil"], ["Rol", "ler</w>"], ["S", "al"], ["Schie", "d"], ["Skateboar", "d"], ["V", "</w>"], ["am", "ong</w>"], ["asiat", "isches</w>"], ["b", "at</w>"], ["b", "es</w>"], ["balanci", "ert</w>"], ["bede", "ckt</w>"], ["bei", "ge</w>"], ["cu", "stom"], ["di", "r"], ["e", "g"], ["fall", "ing</w>"], ["führ", "ung</w>"], ["gol", "f</w>"], ["gro", "c"], ["h", "und</w>"], ["hin", "ter"], ["hoo", "d</w>"], ["hän", "gen</w>"], ["in", "i"], ["jemand", "em</w>"], ["lass", "en</w>"], ["li", "f"], ["li", "ppe</w>"], ["m", "m</w>"], ["ma", "kes</w>"], ["mu", "d</w>"], ["n", "am"], ["offi", "ce</w>"], ["p", "rü"], ["pa", "ssing</w>"], ["pe", "a"], ["sand", "als</w>"], ["schaf", "t"], ["sta", "dium</w>"], ["stei", "gen</w>"], ["swin", "gs</w>"], ["t", "om"], ["tele", "fon</w>"], ["tt", "ern</w>"], ["tt", "on</w>"], ["un", "k"], ["verkau", "fen</w>"], ["vi", "ce</w>"], ["wa", "shing</w>"], ["war", "d</w>"], ["we", "ars</w>"], ["wi", "th"], ["Ak", "kor"], ["Akkor", "de"], ["B", "an"], ["B", "lä"], ["Badeh", "ose</w>"], ["Er", "de</w>"], ["F", "lei"], ["Fel", "l</w>"], ["Gla", "s</w>"], ["K", "ran"], ["L", "auf"], ["Ne", "tz</w>"], ["Pfer", "den</w>"], ["Rü", "ck"], ["Sch", "lau"], ["Schied", "srichter</w>"], ["St", "ein</w>"], ["St", "iefeln</w>"], ["W", "and"], ["Weihnach", "ts"], ["a", "i"], ["ac", "cor"], ["af", "é</w>"], ["al", "m</w>"], ["ar", "en"], ["cano", "e</w>"], ["ch", "i"], ["ch", "ts</w>"], ["chin", "esi"], ["clo", "th</w>"], ["door", "way</w>"], ["ein", "ge"], ["er", "n"], ["fri", "end</w>"], ["fäl", "lt</w>"], ["ge", "schäf"], ["gegen", "über</w>"], ["go", "al</w>"], ["h", "in</w>"], ["head", "s</w>"], ["hel", "d</w>"], ["hi", "king</w>"], ["kor", "b</w>"], ["kü", "sst</w>"], ["leu", "cht"], ["man", "n"], ["multi", "colored</w>"], ["musi", "cal</w>"], ["offic", "ers</w>"], ["p", "ier</w>"], ["partici", "p"], ["photogra", "pher</w>"], ["pp", "en"], ["schmu", "tz"], ["ski", "ing</w>"], ["to", "ys</w>"], ["w", "under"], ["win", "kt</w>"], ["z", "el"], ["z", "ä"], ["zi", "er"], ["(", "</w>"], ["An", "gel"], ["F", "or"], ["Fels", "wand</w>"], ["Hal", "sband</w>"], ["K", "la"], ["K", "ünstler</w>"], ["Kaja", "k</w>"], ["Klassen", "zimmer</w>"], ["Mobil", "telefon</w>"], ["Schul", "ter</w>"], ["Schü", "ler</w>"], ["Snow", "board</w>"], ["Surf", "brett</w>"], ["T", "er"], ["T", "u"], ["Ten", "nis</w>"], ["W", "hi"], ["Z", "imm"], ["a", "ssi"], ["accor", "dion</w>"], ["afri", "kan"], ["an", "n"], ["at", "or</w>"], ["att", "oo"], ["au", "ch</w>"], ["auf", "ger"], ["bare", "foot</w>"], ["ch", "urch</w>"], ["d", "ler</w>"], ["di", "g"], ["dir", "ty</w>"], ["dra", "wing</w>"], ["en", "ter</w>"], ["f", "ör"], ["ff", "ic</w>"], ["fin", "i"], ["he", "ben</w>"], ["hell", "brauner</w>"], ["in", "clu"], ["ir", "gend"], ["l", "er"], ["lap", "top</w>"], ["lea", "sh</w>"], ["lu", "f"], ["m", "el"], ["mal", "es</w>"], ["orange", "farbenem</w>"], ["pi", "cking</w>"], ["profe", "ssion"], ["ra", "si"], ["re", "aching</w>"], ["s", "ern</w>"], ["sp", "i"], ["stell", "ung</w>"], ["t", "on</w>"], ["tat", "too</w>"], ["teena", "ge</w>"], ["th", "e"], ["throw", "s</w>"], ["towi", "er"], ["up", "s</w>"], ["vi", "deo</w>"], ["vol", "l"], ["!", "</w>"], [")", "</w>"], ["B", "ru"], ["BM", "X"], ["BMX", "</w>"], ["Blau", "</w>"], ["Chin", "ese</w>"], ["E", "s</w>"], ["F", "arb"], ["Hoch", "zei"], ["Hö", "he</w>"], ["Je", "an"], ["Kapu", "zen"], ["Lo", "ch</w>"], ["Ober", "teilen</w>"], ["Sch", "i"], ["Schli", "tten</w>"], ["Schlä", "ger</w>"], ["Sicher", "hei"], ["St", "and</w>"], ["ar", "men</w>"], ["auf", "ge"], ["bel", "ow</w>"], ["beleb", "te</w>"], ["bo", "w</w>"], ["daugh", "ter</w>"], ["di", "gging</w>"], ["eh", "rt</w>"], ["f", "uß"], ["fü", "n"], ["glei", "tet</w>"], ["k", "in"], ["lo", "cks</w>"], ["lächeln", "de</w>"], ["mi", "d</w>"], ["mo", "ve</w>"], ["n", "ei"], ["ow", "n"], ["p", "ati"], ["perform", "ance</w>"], ["sch", "w"], ["se", "a"], ["sh", "allow</w>"], ["t", "a</w>"], ["t", "ou"], ["te", "e"]], "vocab": {"<pad>": 0, "<bos>": 1, "<eos>": 2, "<unk>": 3, ".</w>": 4, "a</w>": 5, "in</w>": 6, "A</w>": 7, "Ein</w>": 8, "einem</w>": 9, ",</w>": 10, "the</w>": 11, "und</w>": 12, "mit</w>": 13, "auf</w>": 14, "on</w>": 15, "Mann</w>": 16, "is</w>": 17, "man</w>": 18, "and</w>": 19, "of</w>": 20, "einer</w>": 21, "with</w>": 22, "Eine</w>": 23, "an</w>": 24, "ein</w>": 25, "der</w>": 26, "Frau</w>": 27, "eine</w>": 28, "are</w>": 29, "-</w>": 30, "woman</w>": 31, "die</w>": 32, "einen</w>": 33, "to</w>": 34, "at</w>": 35, "Zwei</w>": 36, "im</w>": 37, "Two</w>": 38, "wearing</w>": 39, "people</w>": 40, "von</w>": 41, "shirt</w>": 42, "sich</w>": 43, "dem</w>": 44, "white</w>": 45, "Mädchen</w>": 46, "den</w>": 47, "young</w>": 48, "men</w>": 49, "black</w>": 50, "vor</w>": 51, "his</w>": 52, "while</w>": 53, "s</w>": 54, "zu</w>": 55, "blue</w>": 56, "red</w>": 57, "steht</w>": 58, "sitting</w>": 59, "t": 60, "girl</w>": 61, "dog</w>": 62, "Männer</w>": 63, "boy</w>": 64, "sitzt</w>": 65, "g": 66, "standing</w>": 67, "Hund</w>": 68, "playing</w>": 69, "Junge</w>": 70, "er</w>": 71, "k": 72, "group</w>": 73, "e": 74, "s": 75, "b": 76, "st": 77, "street</w>": 78, "t</w>": 79, "her</w>": 80, "Straße</w>": 81, "down</w>": 82, "während</w>": 83, "walking</w>": 84, "d": 85, "Gruppe</w>": 86, "hält</w>": 87, "es</w>": 88, "spielt</w>": 89, "front</w>": 90, "er": 91, "c": 92, "in": 93, "</w>": 94, "f": 95, "holding</w>": 96, "hat</w>": 97, "Hemd</w>": 98, "en": 99, "über</w>": 100, "a": 101, "by</w>": 102, "be": 103, "Personen</w>": 104, "m": 105, "e</w>": 106, "p": 107, "i": 108, "te</w>": 109, "ge": 110, "das</w>": 111, "eines</w>": 112, "one</w>": 113, "water</w>": 114, "blauen</w>": 115, "weißen</w>": 116, "The</w>": 117, "am</w>": 118, "up</w>": 119, "as</w>": 120, "ed</w>": 121, "ch": 122, "ist</w>": 123, "Frauen</w>": 124, "y</w>": 125, "aus</w>": 126, "roten</w>": 127, "en</w>": 128, "sch": 129, "neben</w>": 130, "h": 131, "Kind</w>": 132, "l": 133, "stehen</w>": 134, "An</w>": 135, "K": 136, "ten</w>": 137, "um</w>": 138, "an": 139, "Menschen</w>": 140, "green</w>": 141, "women</w>": 142, "geht</w>": 143, "spielen</w>": 144, "for</w>": 145, "durch</w>": 146, "u": 147, "sitzen</w>": 148, "looking</w>": 149, "Drei</w>": 150, "B": 151, "fährt</w>": 152, "outside</w>": 153, "child</w>": 154, "Three</w>": 155, "trägt</w>": 156, "bei</w>": 157, "n": 158, "little</w>": 159, "ing</w>": 160, "large</w>": 161, "Person</w>": 162, "Wasser</w>": 163, "through</w>": 164, "gen</w>": 165, "F": 166, "Kinder</w>": 167, "un": 168, "P": 169, "yellow</w>": 170, "brown</w>": 171, "ball</w>": 172, "St": 173, "two</w>": 174, "ri": 175, "z": 176, "ts</w>": 177, "macht</w>": 178, "d</w>": 179, "kleines</w>": 180, "ers</w>": 181, "springt</w>": 182, "ver": 183, "re": 184, "T": 185, "schwarzen</w>": 186, "from</w>": 187, "their</w>": 188, "li": 189, "into</w>": 190, "ti": 191, "entlang</w>": 192, "zwei</w>": 193, "out</w>": 194, "de": 195, "person</w>": 196, "ck": 197, "kleiner</w>": 198, "children</w>": 199, "other</w>": 200, "on": 201, "next</w>": 202, "H": 203, "st</w>": 204, "Leute</w>": 205, "S": 206, "ra": 207, "al": 208, "o": 209, "gehen</w>": 210, "ch</w>": 211, "dressed</w>": 212, "small</w>": 213, "at": 214, "ar": 215, "W": 216, "y": 217, "over</w>": 218, "D": 219, "ro": 220, "ä": 221, "building</w>": 222, "al</w>": 223, "w": 224, "ge</w>": 225, "etwas</w>": 226, "riding</w>": 227, "running</w>": 228, "stand</w>": 229, "orange</w>": 230, "ger</w>": 231, "seinem</w>": 232, "People</w>": 233, "di": 234, "großen</w>": 235, "ter</w>": 236, "near</w>": 237, "Oberteil</w>": 238, "jacket</w>": 239, "another</w>": 240, "around</w>": 241, "grünen</w>": 242, "L": 243, "n</w>": 244, "el": 245, "se": 246, "le": 247, "or": 248, "C": 249, "field</w>": 250, "some</w>": 251, "ck</w>": 252, "table</w>": 253, "le</w>": 254, "sp": 255, "sidewalk</w>": 256, "ü": 257, "'</w>": 258, "v": 259, "lo": 260, "ert</w>": 261, "ei": 262, "sh": 263, "el</w>": 264, "A": 265, "beach</w>": 266, "Hand</w>": 267, "Sch": 268, "g</w>": 269, "top</w>": 270, "läuft</w>": 271, "crowd</w>": 272, "junge</w>": 273, "Mehrere</w>": 274, "pink</w>": 275, "stands</w>": 276, "la": 277, "de</w>": 278, "si": 279, "sits</w>": 280, "op": 281, "jumping</w>": 282, "cht</w>": 283, "sind</w>": 284, "Der</w>": 285, "behind</w>": 286, "bike</w>": 287, "um": 288, "Fahrrad</w>": 289, "des</w>": 290, "für</w>": 291, "th": 292, "Hintergrund</w>": 293, "M": 294, "snow</w>": 295, "Jungen</w>": 296, "schaut</w>": 297, "Jacke</w>": 298, "mi": 299, "am": 300, "r": 301, "Ball</w>": 302, "chen</w>": 303, "ding</w>": 304, "grass</w>": 305, "Luft</w>": 306, "Freien</w>": 307, "Strand</w>": 308, "ds</w>": 309, "hair</w>": 310, "anderen</w>": 311, "G": 312, "Kleidung</w>": 313, "background</w>": 314, "Shirt</w>": 315, "ern</w>": 316, "f</w>": 317, "air</w>": 318, "gelben</w>": 319, "il": 320, "ur": 321, "junger</w>": 322, "fen</w>": 323, "or</w>": 324, "schen</w>": 325, "b</w>": 326, "park</w>": 327, "se</w>": 328, "off</w>": 329, "hinter</w>": 330, "mo": 331, "tt": 332, "T</w>": 333, "Man</w>": 334, "city</w>": 335, "ne": 336, "R": 337, "o</w>": 338, "player</w>": 339, "girls</w>": 340, "k</w>": 341, "sk": 342, "nach</w>": 343, "looks</w>": 344, "dress</w>": 345, "m</w>": 346, "wall</w>": 347, "ein": 348, "andere</w>": 349, "dogs</w>": 350, "tra": 351, "ss": 352, "ta": 353, "E": 354, "Hut</w>": 355, "l</w>": 356, "pa": 357, "gt</w>": 358, "that</w>": 359, "em</w>": 360, "it": 361, "Gebäude</w>": 362, "schwarzer</w>": 363, "ö": 364, "Tisch</w>": 365, "camera</w>": 366, "it</w>": 367, "side</w>": 368, "sie</w>": 369, "wird</w>": 370, "ma": 371, "Nähe</w>": 372, "ger": 373, "talking</w>": 374, "als</w>": 375, "something</w>": 376, "beim</w>": 377, "et</w>": 378, "boys</w>": 379, "au": 380, "kleine</w>": 381, "kleinen</w>": 382, "older</w>": 383, "hi": 384, "be</w>": 385, "Menschenmenge</w>": 386, "walks</w>": 387, "weißer</w>": 388, "along</w>": 389, "ni": 390, "bl": 391, "bu": 392, "unter</w>": 393, "Kamera</w>": 394, "guitar</w>": 395, "working</w>": 396, "play</w>": 397, "food</w>": 398, "ft</w>": 399, "lady</w>": 400, "blond</w>": 401, "soccer</w>": 402, "together</w>": 403, "ol": 404, "ent": 405, "Gras</w>": 406, "vorbei</w>": 407, "walk</w>": 408, "hoch</w>": 409, "Hunde</w>": 410, "ap": 411, "O": 412, "Boden</w>": 413, "gray</w>": 414, "te": 415, "ff": 416, "Schnee</w>": 417, "road</w>": 418, "smiling</w>": 419, "Die</w>": 420, "rennt</w>": 421, "ss</w>": 422, "game</w>": 423, "has</w>": 424, "ki": 425, "hand</w>": 426, "picture</w>": 427, "ihre</w>": 428, "ly</w>": 429, "schwarz</w>": 430, "ho": 431, "po": 432, "wa": 433, "plays</w>": 434, "suit</w>": 435, "Vier</w>": 436, "car</w>": 437, "ru": 438, "Asian</w>": 439, "he</w>": 440, "\"</w>": 441, "fahren</w>": 442, "ter": 443, "ting</w>": 444, "Gitarre</w>": 445, "holds</w>": 446, "ihren</w>": 447, "face</w>": 448, "glasses</w>": 449, "pi": 450, "che": 451, "sen</w>": 452, "Four</w>": 453, "bench</w>": 454, "old</w>": 455, "Kleid</w>": 456, "auf": 457, "con": 458, "we": 459, "him</w>": 460, "pants</w>": 461, "sit</w>": 462, "ve</w>": 463, "Z": 464, "braunen</w>": 465, "p</w>": 466, "shorts</w>": 467, "all</w>": 468, "ad": 469, "head</w>": 470, "wi": 471, "stage</w>": 472, "sehen</w>": 473, "cks</w>": 474, "bo": 475, "carrying</w>": 476, "ung</w>": 477, "ab": 478, "ben</w>": 479, "elt</w>": 480, "ling</w>": 481, "baby</w>": 482, "sein</w>": 483, "pool</w>": 484, "älterer</w>": 485, "eln</w>": 486, "rock</w>": 487, "Feld</w>": 488, "back</w>": 489, "zusammen</w>": 490, "zu": 491, "couple</w>": 492, "room</w>": 493, "them</w>": 494, "Bühne</w>": 495, "band</w>": 496, "bicycle</w>": 497, "ihr</w>": 498, "nen</w>": 499, "draußen</w>": 500, "gs</w>": 501, "tree</w>": 502, "sh</w>": 503, "Brille</w>": 504, "all": 505, "ar</w>": 506, "herum</w>": 507, "Several</w>": 508, "eren</w>": 509, "sc": 510, "pe</w>": 511, "sche</w>": 512, "seine</w>": 513, "Ge": 514, "Kopf</w>": 515, "N": 516, "blickt</w>": 517, "jeans</w>": 518, "cken</w>": 519, "each</w>": 520, "race</w>": 521, "day</w>": 522, "long</w>": 523, "taking</w>": 524, "ent</w>": 525, "sten</w>": 526, "Gehweg</w>": 527, "ten": 528, "ba": 529, "arbeitet</w>": 530, "ate</w>": 531, "tz": 532, "Park</w>": 533, "doing</w>": 534, "end</w>": 535, "up": 536, "Foto</w>": 537, "boat</w>": 538, "brauner</w>": 539, "dabei</w>": 540, "ine</w>": 541, "seinen</w>": 542, "dr": 543, "fi": 544, "fer": 545, "mu": 546, "sieht</w>": 547, "ex": 548, "ckt</w>": 549, "across</w>": 550, "watching</w>": 551, "x": 552, "Be": 553, "par": 554, "Stadt</w>": 555, "area</w>": 556, "dirt</w>": 557, "male</w>": 558, "hinunter</w>": 559, "laufen</w>": 560, "ken</w>": 561, "liegt</w>": 562, "middle</w>": 563, "Jeans</w>": 564, "gen": 565, "ground</w>": 566, "ce</w>": 567, "ster</w>": 568, "versucht</w>": 569, "tragen</w>": 570, "Baby</w>": 571, "dark</w>": 572, "ks</w>": 573, "wie</w>": 574, "jumps</w>": 575, "Sp": 576, "coat</w>": 577, "tes</w>": 578, "Bank</w>": 579, "hands</w>": 580, "ges</w>": 581, "zeigt</w>": 582, "co": 583, "her": 584, "lin": 585, "mar": 586, "schauen</w>": 587, "Dame</w>": 588, "performing</w>": 589, "Paar</w>": 590, "fa": 591, "ons</w>": 592, "enden</w>": 593, "arbeiten</w>": 594, "aus": 595, "ke</w>": 596, "machen</w>": 597, "ou": 598, "who</w>": 599, "eating</w>": 600, "ir": 601, "to": 602, "enen</w>": 603, "female</w>": 604, "große</w>": 605, "ins</w>": 606, "lächelt</w>": 607, "under</w>": 608, "Essen</w>": 609, "being</w>": 610, "striped</w>": 611, "ß": 612, "baseball</w>": 613, "guy</w>": 614, "orangefarbenen</w>": 615, "pro": 616, "sa": 617, "sign</w>": 618, "its</w>": 619, "board</w>": 620, "gi": 621, "using</w>": 622, "än": 623, "ihrem</w>": 624, "pu": 625, "der": 626, "em": 627, "gel</w>": 628, "qu": 629, "tro": 630, "ves</w>": 631, "ner</w>": 632, "rei": 633, "horse</w>": 634, "ne</w>": 635, "w</w>": 636, "über": 637, "football</w>": 638, "gh": 639, "ic": 640, "watch</w>": 641, "ihm</w>": 642, "mouth</w>": 643, "purple</w>": 644, "store</w>": 645, "halten</w>": 646, "kleidung</w>": 647, "Skateboard</w>": 648, "j": 649, "rot</w>": 650, "wei": 651, "eh": 652, "ur</w>": 653, "ving</w>": 654, "gu": 655, "junges</w>": 656, "ul": 657, "ür": 658, "Bürgersteig</w>": 659, "Hose</w>": 660, "ältere</w>": 661, "blau</w>": 662, "haired</w>": 663, "liest</w>": 664, "look</w>": 665, "sand</w>": 666, "weiß</w>": 667, "chair</w>": 668, "spricht</w>": 669, "eu": 670, "ie</w>": 671, "ls</w>": 672, "ste</w>": 673, "tr": 674, "work</w>": 675, "führt</w>": 676, "runs</w>": 677, "tennis</w>": 678, "den": 679, "posing</w>": 680, "ses</w>": 681, "vor": 682, "et": 683, "fla": 684, "sen": 685, "su": 686, "car": 687, "da": 688, "reading</w>": 689, "I": 690, "ching</w>": 691, "unterhalten</w>": 692, "Young</w>": 693, "rennen</w>": 694, "sunglasses</w>": 695, "Haaren</w>": 696, "Wand</w>": 697, "bi": 698, "weißem</w>": 699, "clothing</w>": 700, "me": 701, "team</w>": 702, "uniform</w>": 703, "microphone</w>": 704, "players</w>": 705, "rosa</w>": 706, "three</w>": 707, "vi": 708, "ber": 709, "light</w>": 710, "sel": 711, "There</w>": 712, "cher</w>": 713, "dri": 714, "line</w>": 715, "covered</w>": 716, "gel": 717, "mountain</w>": 718, "Wasser": 719, "cke</w>": 720, "th</w>": 721, "toy</w>": 722, "ach": 723, "unter": 724, "way</w>": 725, "Boot</w>": 726, "Sonnenbrille</w>": 727, "grauen</w>": 728, "ocean</w>": 729, "Spiel": 730, "ation</w>": 731, "watches</w>": 732, "zum</w>": 733, "Pferd</w>": 734, "Straßen": 735, "basketball</w>": 736, "climbing</w>": 737, "dancing</w>": 738, "drei</w>": 739, "during</w>": 740, "tri": 741, "restaurant</w>": 742, "rü": 743, "Hosen</w>": 744, "ans</w>": 745, "art</w>": 746, "blauem</w>": 747, "gekleidete</w>": 748, "kids</w>": 749, "past</w>": 750, "Holz": 751, "Spieler</w>": 752, "seiner</w>": 753, "shirts</w>": 754, "Tag</w>": 755, "helmet</w>": 756, "“</w>": 757, "ell": 758, "pe": 759, "weg</w>": 760, "against</w>": 761, "du": 762, "Helm</w>": 763, "J": 764, "che</w>": 765, "ende</w>": 766, "ps</w>": 767, "stu": 768, "and": 769, "do": 770, "train</w>": 771, "gesch": 772, "klettert</w>": 773, "lie": 774, "singt</w>": 775, "window</w>": 776, "An": 777, "Gesicht</w>": 778, "Auto</w>": 779, "ab</w>": 780, "ben": 781, "om": 782, "rides</w>": 783, "elderly</w>": 784, "ihnen</w>": 785, "ran": 786, "hr": 787, "me</w>": 788, "weiße</w>": 789, "Fußball</w>": 790, "Hand": 791, "ca": 792, "fahr": 793, "op</w>": 794, "pen</w>": 795, "tu": 796, "„</w>": 797, "Bild</w>": 798, "Mantel</w>": 799, "ad</w>": 800, "hell": 801, "tion</w>": 802, "Shorts</w>": 803, "for": 804, "ie": 805, "tzen</w>": 806, "Band</w>": 807, "ches</w>": 808, "ice</w>": 809, "One</w>": 810, "les</w>": 811, "posiert</w>": 812, "trees</w>": 813, "wooden</w>": 814, "Felsen</w>": 815, "about</w>": 816, "darauf</w>": 817, "ers": 818, "having</w>": 819, "bag</w>": 820, "outdoor</w>": 821, "ys</w>": 822, "bar": 823, "dern</w>": 824, "ts": 825, "waiting</w>": 826, "they</w>": 827, "tur": 828, "befindet</w>": 829, "blauer</w>": 830, "gr": 831, "lei": 832, "truck</w>": 833, "wirft</w>": 834, "Ein": 835, "geh": 836, "gra": 837, "ische</w>": 838, "mm": 839, "rau": 840, "swimming</w>": 841, "very</w>": 842, "getting</w>": 843, "hel": 844, "wagen</w>": 845, "ze</w>": 846, "denen</w>": 847, "floor</w>": 848, "gest": 849, "kt</w>": 850, "bus</w>": 851, "ere</w>": 852, "ett": 853, "workers</w>": 854, "Sand</w>": 855, "ats</w>": 856, "construction</w>": 857, "lich</w>": 858, "net</w>": 859, "ted</w>": 860, "trying</w>": 861, "war": 862, "Ma": 863, "Mikrofon</w>": 864, "V": 865, "bereitet</w>": 866, "fen": 867, "ke": 868, "king</w>": 869, "skateboard</w>": 870, "ste": 871, "Baum</w>": 872, "fe</w>": 873, "hill</w>": 874, "ren": 875, "Ho": 876, "book</w>": 877, "ci": 878, "schwarzem</w>": 879, "busy</w>": 880, "colorful</w>": 881, "gekleideter</w>": 882, "spiel</w>": 883, "U": 884, "lichen</w>": 885, "singing</w>": 886, "sta": 887, "Das</w>": 888, "Woman</w>": 889, "fence</w>": 890, "sehr</w>": 891, "Restaurant</w>": 892, "high</w>": 893, "jo": 894, "jump</w>": 895, "sti": 896, "ue</w>": 897, "This</w>": 898, "det</w>": 899, "je": 900, "Meer</w>": 901, "erin</w>": 902, "hal": 903, "hl": 904, "len</w>": 905, "pla": 906, "rotem</w>": 907, "run": 908, "so": 909, "cart</w>": 910, "ens</w>": 911, "oder</w>": 912, "roter</w>": 913, "rä": 914, "ssen</w>": 915, "Schwimm": 916, "Weg</w>": 917, "kl": 918, "langen</w>": 919, "market</w>": 920, "spieler</w>": 921, "Arbeiter</w>": 922, "Wald</w>": 923, "col": 924, "fe": 925, "isst</w>": 926, "ride</w>": 927, "tan</w>": 928, "Männern</w>": 929, "anderer</w>": 930, "ces</w>": 931, "hin": 932, "ow": 933, "ow</w>": 934, "springen</w>": 935, "Fenster</w>": 936, "Kindern</w>": 937, "Pullover</w>": 938, "Raum</w>": 939, "Wiese</w>": 940, "gestreiften</w>": 941, "ght</w>": 942, "hats</w>": 943, "inside</w>": 944, "laying</w>": 945, "oben</w>": 946, "schwarze</w>": 947, "spe": 948, "Men</w>": 949, "Schild</w>": 950, "cap</w>": 951, "essen</w>": 952, "hand": 953, "wartet</w>": 954, "zen</w>": 955, "2</w>": 956, "bar</w>": 957, "body</w>": 958, "com": 959, "lan": 960, "alter</w>": 961, "bright</w>": 962, "i</w>": 963, "ker</w>": 964, "sha": 965, "Anzug</w>": 966, "Trikot</w>": 967, "dan": 968, "ig": 969, "kitchen</w>": 970, "led</w>": 971, "others</w>": 972, "tern</w>": 973, "Frisbee</w>": 974, "cellphone</w>": 975, "grassy</w>": 976, "path</w>": 977, "Au": 978, "In": 979, "Motorrad</w>": 980, "ating</w>": 981, "bri": 982, "wor": 983, "äu": 984, "Mar": 985, "making</w>": 986, "outfit</w>": 987, "ump": 988, "voller</w>": 989, "Bluse</w>": 990, "Se": 991, "clothes</w>": 992, "malt</w>": 993, "night</w>": 994, "posieren</w>": 995, "Kar": 996, "big</w>": 997, "brick</w>": 998, "stri": 999, "takes</w>": 1000, "trick</w>": 1001, "wer": 1002, "werden</w>": 1003, "zei": 1004, "Bo": 1005, "Haar</w>": 1006, "umbrella</w>": 1007, "Mo": 1008, "full</w>": 1009, "motorcycle</w>": 1010, "pul": 1011, "reitet</w>": 1012, "stü": 1013, "towards</w>": 1014, "track</w>": 1015, "tt</w>": 1016, "Fahr": 1017, "Oberkörper</w>": 1018, "cra": 1019, "einander</w>": 1020, "ik": 1021, "ju": 1022, "shop</w>": 1023, "Fünf</w>": 1024, "age</w>": 1025, "enjoying</w>": 1026, "fü": 1027, "rin": 1028, "river</w>": 1029, "set</w>": 1030, "spiel": 1031, "zieht</w>": 1032, "Stuhl</w>": 1033, "Viele</w>": 1034, "alten</w>": 1035, "metal</w>": 1036, "nt</w>": 1037, "phone</w>": 1038, "swing</w>": 1039, "yard</w>": 1040, "ying</w>": 1041, "äl": 1042, "Pro": 1043, "Spiel</w>": 1044, "colored</w>": 1045, "ep</w>": 1046, "form": 1047, "open</w>": 1048, "scht</w>": 1049, "stra": 1050, "tre": 1051, "Fußball": 1052, "ded</w>": 1053, "igen</w>": 1054, "paper</w>": 1055, "sitz": 1056, "Ver": 1057, "betrachtet</w>": 1058, "bt</w>": 1059, "dance</w>": 1060, "gg": 1061, "ler</w>": 1062, "lu": 1063, "ows</w>": 1064, "piece</w>": 1065, "ready</w>": 1066, "Hügel</w>": 1067, "back": 1068, "c</w>": 1069, "shes</w>": 1070, "tank</w>": 1071, "tem</w>": 1072, "nen": 1073, "zwischen</w>": 1074, "Five</w>": 1075, "Handy</w>": 1076, "Te": 1077, "ange": 1078, "chten</w>": 1079, "els</w>": 1080, "est": 1081, "Ei": 1082, "Roll": 1083, "blonde</w>": 1084, "cking</w>": 1085, "cu": 1086, "ender</w>": 1087, "tanzen</w>": 1088, "tel</w>": 1089, "zeug</w>": 1090, "Leuten</w>": 1091, "Ski": 1092, "ery</w>": 1093, "lake</w>": 1094, "lea": 1095, "schläft</w>": 1096, "warten</w>": 1097, "Auf": 1098, "Ba": 1099, "Berg</w>": 1100, "Bü": 1101, "Sport": 1102, "ati": 1103, "men": 1104, "na": 1105, "oo": 1106, "sse</w>": 1107, "stick</w>": 1108, "sweater</w>": 1109, "Buch</w>": 1110, "Mütze</w>": 1111, "Rennen</w>": 1112, "ber</w>": 1113, "go": 1114, "she</w>": 1115, "Li": 1116, "above</w>": 1117, "fan": 1118, "ko": 1119, "lehnt</w>": 1120, "ning</w>": 1121, "paar</w>": 1122, "painting</w>": 1123, "sed</w>": 1124, "several</w>": 1125, "ssi": 1126, "ungen</w>": 1127, "1": 1128, "Ki": 1129, "Spielzeug</w>": 1130, "ac": 1131, "arm</w>": 1132, "haben</w>": 1133, "tritt</w>": 1134, "Händen</w>": 1135, "ble</w>": 1136, "bun": 1137, "cha": 1138, "gar": 1139, "going</w>": 1140, "gri": 1141, "ßen</w>": 1142, "Bahn</w>": 1143, "Stock</w>": 1144, "gegen</w>": 1145, "many</w>": 1146, "no": 1147, "per": 1148, "run</w>": 1149, "snow": 1150, "sur": 1151, "ved</w>": 1152, "Maul</w>": 1153, "Ro": 1154, "ach</w>": 1155, "beobachtet</w>": 1156, "fo": 1157, "hard</w>": 1158, "he": 1159, "hn": 1160, "miteinander</w>": 1161, "snowy</w>": 1162, "stone</w>": 1163, "vest</w>": 1164, "Bau": 1165, "Bäumen</w>": 1166, "Sk": 1167, "Tra": 1168, "ders</w>": 1169, "house</w>": 1170, "ser": 1171, "shopping</w>": 1172, "tor": 1173, "wave</w>": 1174, "Bu": 1175, "Fluss</w>": 1176, "asian</w>": 1177, "boar": 1178, "fri": 1179, "music</w>": 1180, "onto</w>": 1181, "surrounded</w>": 1182, "tanzt</w>": 1183, "uniforms</w>": 1184, "ßt</w>": 1185, "ör": 1186, "Baseball": 1187, "Bauarbeiter</w>": 1188, "Kleinkind</w>": 1189, "Renn": 1190, "Rucksack</w>": 1191, "air": 1192, "crowded</w>": 1193, "farbenen</w>": 1194, "ha": 1195, "ihrer</w>": 1196, "like</w>": 1197, "min": 1198, "worker</w>": 1199, "Ab": 1200, "Arm</w>": 1201, "Ka": 1202, "Pi": 1203, "Zei": 1204, "ack": 1205, "pass": 1206, "x</w>": 1207, "Aus": 1208, "Re": 1209, "U</w>": 1210, "backpack</w>": 1211, "ele": 1212, "fangen</w>": 1213, "ga": 1214, "gear</w>": 1215, "geb": 1216, "gs": 1217, "ops</w>": 1218, "pole</w>": 1219, "schiebt</w>": 1220, "smiles</w>": 1221, "Football</w>": 1222, "Ta": 1223, "ars</w>": 1224, "beside</w>": 1225, "outdoors</w>": 1226, "photo</w>": 1227, "sch</w>": 1228, "steh": 1229, "Sa": 1230, "adults</w>": 1231, "ale</w>": 1232, "dra": 1233, "fire</w>": 1234, "hu": 1235, "plan": 1236, "tte</w>": 1237, "vom</w>": 1238, "Radfahrer</w>": 1239, "bahn</w>": 1240, "befinden</w>": 1241, "braun</w>": 1242, "door</w>": 1243, "drinking</w>": 1244, "ischer</w>": 1245, "mer": 1246, "mon": 1247, "är": 1248, "Fa": 1249, "Schwimmbecken</w>": 1250, "hockey</w>": 1251, "ining</w>": 1252, "schie": 1253, "stre": 1254, "sä": 1255, "zeu": 1256, "ard</w>": 1257, "bridge</w>": 1258, "fin": 1259, "mat": 1260, "ster": 1261, "Her": 1262, "Küche</w>": 1263, "Seite</w>": 1264, "bei": 1265, "boo": 1266, "cross</w>": 1267, "flowers</w>": 1268, "kid</w>": 1269, "oc": 1270, "schn": 1271, "ser</w>": 1272, "Bla": 1273, "Kunst": 1274, "Motor": 1275, "Ol": 1276, "See</w>": 1277, "Vor": 1278, "arms</w>": 1279, "cre": 1280, "einigen</w>": 1281, "fl": 1282, "gathered</w>": 1283, "ll</w>": 1284, "rope</w>": 1285, "Geschäft</w>": 1286, "Welle</w>": 1287, "ction</w>": 1288, "event</w>": 1289, "hanging</w>": 1290, "kurzen</w>": 1291, "nimmt</w>": 1292, "shoes</w>": 1293, "slee": 1294, "öff": 1295, "Po": 1296, "away</w>": 1297, "cat": 1298, "catch</w>": 1299, "gers</w>": 1300, "grau": 1301, "hei": 1302, "lot</w>": 1303, "ong": 1304, "subway</w>": 1305, "tei": 1306, "African</w>": 1307, "Rücken</w>": 1308, "Treppe</w>": 1309, "Zaun</w>": 1310, "bur": 1311, "family</w>": 1312, "feld</w>": 1313, "fer</w>": 1314, "head": 1315, "hü": 1316, "ment</w>": 1317, "ns</w>": 1318, "ure</w>": 1319, "Ger": 1320, "ched</w>": 1321, "ese</w>": 1322, "flo": 1323, "man": 1324, "preparing</w>": 1325, "schneidet</w>": 1326, "sin": 1327, "tter</w>": 1328, "Familie</w>": 1329, "cing</w>": 1330, "costume</w>": 1331, "leaning</w>": 1332, "lächeln</w>": 1333, "object</w>": 1334, "ping</w>": 1335, "sing</w>": 1336, "steps</w>": 1337, "tball": 1338, "toddler</w>": 1339, "verkauft</w>": 1340, "zur</w>": 1341, "In</w>": 1342, "Many</w>": 1343, "Pla": 1344, "cur": 1345, "fishing</w>": 1346, "sleeping</w>": 1347, "Children</w>": 1348, "Schla": 1349, "ates</w>": 1350, "bank</w>": 1351, "guys</w>": 1352, "ht</w>": 1353, "ings</w>": 1354, "rosafarbenen</w>": 1355, "schla": 1356, "trinkt</w>": 1357, "versammelt</w>": 1358, "American</w>": 1359, "Ball": 1360, "Hau": 1361, "Metall": 1362, "Tennis": 1363, "after</w>": 1364, "bunten</w>": 1365, "cht": 1366, "fountain</w>": 1367, "hängt</w>": 1368, "inter": 1369, "kers</w>": 1370, "lau": 1371, "machine</w>": 1372, "mitten</w>": 1373, "plaid</w>": 1374, "schaft</w>": 1375, "short</w>": 1376, "sm": 1377, "under": 1378, "volleyball</w>": 1379, "wood</w>": 1380, "La": 1381, "ass": 1382, "beautiful</w>": 1383, "ir</w>": 1384, "lä": 1385, "pre": 1386, "stairs</w>": 1387, "statue</w>": 1388, "take</w>": 1389, "Asi": 1390, "Blumen</w>": 1391, "Hun": 1392, "Na": 1393, "Sand": 1394, "Schu": 1395, "arb": 1396, "ihn</w>": 1397, "land": 1398, "ot</w>": 1399, "over": 1400, "pon": 1401, "squ": 1402, "tze</w>": 1403, "Bil": 1404, "Rei": 1405, "Tei": 1406, "adult</w>": 1407, "anzug</w>": 1408, "chairs</w>": 1409, "einige</w>": 1410, "kan": 1411, "off": 1412, "rote</w>": 1413, "sei": 1414, "Markt</w>": 1415, "Stein": 1416, "Wagen</w>": 1417, "fahrer</w>": 1418, "graffiti</w>": 1419, "gruppe</w>": 1420, "licher</w>": 1421, "mal": 1422, "r</w>": 1423, "telefoniert</w>": 1424, "wat": 1425, "Vi": 1426, "belebten</w>": 1427, "cket</w>": 1428, "dunkel": 1429, "gerade</w>": 1430, "gging</w>": 1431, "hebt</w>": 1432, "liche</w>": 1433, "police</w>": 1434, "pose</w>": 1435, "teil</w>": 1436, "Zug</w>": 1437, "asiatische</w>": 1438, "bal": 1439, "bla": 1440, "dd": 1441, "go</w>": 1442, "großer</w>": 1443, "ier</w>": 1444, "own</w>": 1445, "rocks</w>": 1446, "schau": 1447, "scher</w>": 1448, "schlägt</w>": 1449, "schwimmt</w>": 1450, "selling</w>": 1451, "shirtless</w>": 1452, "spazieren</w>": 1453, "umgeben</w>": 1454, "ung": 1455, "zi": 1456, "Bus</w>": 1457, "Ha": 1458, "Reihe</w>": 1459, "aged</w>": 1460, "does</w>": 1461, "forest</w>": 1462, "gre": 1463, "hen</w>": 1464, "ph": 1465, "schir": 1466, "shi": 1467, "sunny</w>": 1468, "Gewässer</w>": 1469, "Wett": 1470, "ade</w>": 1471, "blicken</w>": 1472, "ene</w>": 1473, "glass</w>": 1474, "isch</w>": 1475, "llt</w>": 1476, "nä": 1477, "prote": 1478, "setting</w>": 1479, "weißes</w>": 1480, "wo": 1481, "yclist</w>": 1482, "Autos</w>": 1483, "Fußballspieler</w>": 1484, "Si": 1485, "amer": 1486, "ce": 1487, "fliegt</w>": 1488, "four</w>": 1489, "freiem</w>": 1490, "gekleidet</w>": 1491, "get</w>": 1492, "kt": 1493, "parade</w>": 1494, "racing</w>": 1495, "schneebedeckten</w>": 1496, "und": 1497, "Kü": 1498, "Mutter</w>": 1499, "Tasche</w>": 1500, "asse</w>": 1501, "bereiten</w>": 1502, "both</w>": 1503, "bra": 1504, "cor": 1505, "corner</w>": 1506, "drink</w>": 1507, "ei</w>": 1508, "grünem</w>": 1509, "hut</w>": 1510, "kommt</w>": 1511, "pol": 1512, "putting</w>": 1513, "ry</w>": 1514, "vielen</w>": 1515, "zug</w>": 1516, "Ar": 1517, "Brücke</w>": 1518, "Fuß</w>": 1519, "Gebäudes</w>": 1520, "Hände</w>": 1521, "ausseh": 1522, "bikes</w>": 1523, "chtet</w>": 1524, "dar": 1525, "ell</w>": 1526, "ette</w>": 1527, "fall</w>": 1528, "lässt</w>": 1529, "pushing</w>": 1530, "rad</w>": 1531, "res</w>": 1532, "scarf</w>": 1533, "sonnigen</w>": 1534, "straße</w>": 1535, "tall</w>": 1536, "throwing</w>": 1537, "vier</w>": 1538, "vorbei": 1539, "wir": 1540, "Himmel</w>": 1541, "Publikum</w>": 1542, "Tele": 1543, "Ti": 1544, "bau": 1545, "between</w>": 1546, "ered</w>": 1547, "fli": 1548, "have</w>": 1549, "instrument</w>": 1550, "jacke</w>": 1551, "ors</w>": 1552, "padd": 1553, "party</w>": 1554, "slide</w>": 1555, "stei": 1556, "view</w>": 1557, "ügen</w>": 1558, "Bart</w>": 1559, "Gel": 1560, "Hemden</w>": 1561, "Ob": 1562, "Richtung</w>": 1563, "Sei": 1564, "Some</w>": 1565, "can": 1566, "cle": 1567, "eri": 1568, "gol": 1569, "hoch": 1570, "hohen</w>": 1571, "iert</w>": 1572, "kämpfen</w>": 1573, "ladies</w>": 1574, "laughing</w>": 1575, "public</w>": 1576, "sho": 1577, "show</w>": 1578, "spla": 1579, "ver</w>": 1580, "Basketball</w>": 1581, "De": 1582, "Schwarz</w>": 1583, "computer</w>": 1584, "eller</w>": 1585, "equipment</w>": 1586, "flu": 1587, "fläche</w>": 1588, "fre": 1589, "grün</w>": 1590, "herunter</w>": 1591, "instruments</w>": 1592, "ring</w>": 1593, "shing</w>": 1594, "someone</w>": 1595, "win": 1596, "3</w>": 1597, "Beton": 1598, "Geländer</w>": 1599, "Graffiti</w>": 1600, "Weste</w>": 1601, "can</w>": 1602, "couch</w>": 1603, "dunklen</w>": 1604, "ehr": 1605, "fish</w>": 1606, "liegen</w>": 1607, "ned</w>": 1608, "row": 1609, "sky</w>": 1610, "ty</w>": 1611, "unten</w>": 1612, "En": 1613, "Haus</w>": 1614, "Kan": 1615, "Schul": 1616, "To": 1617, "blaue</w>": 1618, "flag</w>": 1619, "iel": 1620, "ing": 1621, "kü": 1622, "photograph": 1623, "pic": 1624, "pictures</w>": 1625, "plastic</w>": 1626, "ramp</w>": 1627, "row</w>": 1628, "sto": 1629, "stuhl</w>": 1630, "sun</w>": 1631, "treten</w>": 1632, "ut</w>": 1633, "where</w>": 1634, "zer": 1635, "zuschauen</w>": 1636, "zz": 1637, "Gr": 1638, "Jo": 1639, "Kopfbedeckung</w>": 1640, "Platz</w>": 1641, "Sprung</w>": 1642, "Zuschauer</w>": 1643, "ally</w>": 1644, "bed</w>": 1645, "concrete</w>": 1646, "dock</w>": 1647, "fei": 1648, "ild</w>": 1649, "ob": 1650, "playground</w>": 1651, "poses</w>": 1652, "station</w>": 1653, "sweatshirt</w>": 1654, "ters</w>": 1655, "trail</w>": 1656, "which</w>": 1657, "woods</w>": 1658, "works</w>": 1659, "Bahn": 1660, "Erwachsene</w>": 1661, "Seil</w>": 1662, "Y": 1663, "Zeitung</w>": 1664, "ated</w>": 1665, "beard</w>": 1666, "bel": 1667, "cam": 1668, "dire": 1669, "ets</w>": 1670, "ieren</w>": 1671, "skirt</w>": 1672, "strei": 1673, "water": 1674, "Mannes</w>": 1675, "Sonnen": 1676, "alte</w>": 1677, "asiatischer</w>": 1678, "elle</w>": 1679, "farb": 1680, "fest</w>": 1681, "fire": 1682, "hinauf</w>": 1683, "midair</w>": 1684, "reads</w>": 1685, "schen": 1686, "tz</w>": 1687, "uh</w>": 1688, "wel": 1689, "winter</w>": 1690, "Bal": 1691, "Musik</w>": 1692, "Unter": 1693, "bic": 1694, "blondes</w>": 1695, "bro": 1696, "ely</w>": 1697, "just</w>": 1698, "kau": 1699, "pan": 1700, "shov": 1701, "suits</w>": 1702, "wing</w>": 1703, "xing</w>": 1704, "Arbei": 1705, "Ber": 1706, "Do": 1707, "ater</w>": 1708, "clo": 1709, "cowboy</w>": 1710, "cross": 1711, "karierten</w>": 1712, "number</w>": 1713, "pp": 1714, "scope</w>": 1715, "she": 1716, "Schauf": 1717, "Schn": 1718, "Stu": 1719, "Um": 1720, "ant</w>": 1721, "ball": 1722, "bor": 1723, "braune</w>": 1724, "davon</w>": 1725, "distance</w>": 1726, "ey</w>": 1727, "genießt</w>": 1728, "geschäft</w>": 1729, "glei": 1730, "lined</w>": 1731, "mehrere</w>": 1732, "sts</w>": 1733, "überqueren</w>": 1734, "Baum": 1735, "Decke</w>": 1736, "Hal": 1737, "Hof</w>": 1738, "Jemand</w>": 1739, "Kl": 1740, "Kunststück</w>": 1741, "Verk": 1742, "aten</w>": 1743, "attire</w>": 1744, "ausge": 1745, "bags</w>": 1746, "kne": 1747, "rain</w>": 1748, "school</w>": 1749, "seated</w>": 1750, "sl": 1751, "stor": 1752, "swe": 1753, "toward</w>": 1754, "tten</w>": 1755, "wal": 1756, "z</w>": 1757, "zer</w>": 1758, "zusehen</w>": 1759, "Gra": 1760, "Spa": 1761, "Zuschauern</w>": 1762, "ang</w>": 1763, "beer</w>": 1764, "bil": 1765, "ckey</w>": 1766, "gibt</w>": 1767, "grill</w>": 1768, "hemd</w>": 1769, "innen</w>": 1770, "kar": 1771, "lacht</w>": 1772, "left</w>": 1773, "lying</w>": 1774, "mittleren</w>": 1775, "mp": 1776, "ool</w>": 1777, "pes</w>": 1778, "place</w>": 1779, "ven</w>": 1780, "what</w>": 1781, "wheel": 1782, "ün": 1783, "Feuerwehr": 1784, "Kon": 1785, "Mauer</w>": 1786, "Outfit</w>": 1787, "Schirm</w>": 1788, "benutzt</w>": 1789, "blo": 1790, "box</w>": 1791, "cooking</w>": 1792, "cutting</w>": 1793, "filled</w>": 1794, "führen</w>": 1795, "gelber</w>": 1796, "geln</w>": 1797, "il</w>": 1798, "isch": 1799, "kla": 1800, "klei": 1801, "ous</w>": 1802, "sli": 1803, "tent</w>": 1804, "time</w>": 1805, "ula</w>": 1806, "vests</w>": 1807, "ym": 1808, "ät</w>": 1809, "Little</w>": 1810, "Menge</w>": 1811, "Papier</w>": 1812, "Ra": 1813, "Spielplatz</w>": 1814, "Stück</w>": 1815, "ance</w>": 1816, "braun": 1817, "buildings</w>": 1818, "cal</w>": 1819, "da</w>": 1820, "ering</w>": 1821, "pulling</w>": 1822, "right</w>": 1823, "shore</w>": 1824, "ß</w>": 1825, "Baseballspieler</w>": 1826, "Einige</w>": 1827, "Freun": 1828, "Fri": 1829, "Geschäf": 1830, "Lebensmitt": 1831, "Pfer": 1832, "Rock</w>": 1833, "Schaukel</w>": 1834, "chter</w>": 1835, "cream</w>": 1836, "fest": 1837, "markt</w>": 1838, "nehmen</w>": 1839, "orangen</w>": 1840, "ort</w>": 1841, "rider</w>": 1842, "tie</w>": 1843, "unterhält</w>": 1844, ";</w>": 1845, "Alters</w>": 1846, "Gew": 1847, "Kampf": 1848, "Mensch</w>": 1849, "Pool</w>": 1850, "Ru": 1851, "Wa": 1852, "af": 1853, "anz": 1854, "appears</w>": 1855, "arren</w>": 1856, "bereit</w>": 1857, "brin": 1858, "bs</w>": 1859, "cla": 1860, "cliff</w>": 1861, "court</w>": 1862, "crossing</w>": 1863, "großes</w>": 1864, "hoo": 1865, "hor": 1866, "kes</w>": 1867, "kten</w>": 1868, "rest": 1869, "sca": 1870, "stellt</w>": 1871, "wand</w>": 1872, "wrest": 1873, "zusieht</w>": 1874, "Fußgän": 1875, "Land": 1876, "Mitte</w>": 1877, "Sofa</w>": 1878, "Surfer</w>": 1879, "afe</w>": 1880, "edge</w>": 1881, "gang</w>": 1882, "gh</w>": 1883, "gro": 1884, "hol": 1885, "iner</w>": 1886, "kon": 1887, "mountains</w>": 1888, "nahe</w>": 1889, "nebeneinander</w>": 1890, "ple</w>": 1891, "por": 1892, "roll": 1893, "sam": 1894, "scheint</w>": 1895, "showing</w>": 1896, "zuschaut</w>": 1897, "0": 1898, "Augen</w>": 1899, "Blick</w>": 1900, "Rasen</w>": 1901, "app": 1902, "bathing</w>": 1903, "boots</w>": 1904, "bru": 1905, "chs</w>": 1906, "ctor</w>": 1907, "haarige</w>": 1908, "ka": 1909, "lila</w>": 1910, "ll": 1911, "pping</w>": 1912, "sn": 1913, "swim": 1914, "tig</w>": 1915, "tige</w>": 1916, "tzt</w>": 1917, "–</w>": 1918, "Ch": 1919, "Fla": 1920, "Fotos</w>": 1921, "Me": 1922, "Turn": 1923, "Typ</w>": 1924, "Women</w>": 1925, "arm": 1926, "arts</w>": 1927, "dresses</w>": 1928, "gelb</w>": 1929, "jersey</w>": 1930, "kom": 1931, "nachts</w>": 1932, "nearby</w>": 1933, "performs</w>": 1934, "son</w>": 1935, "sting</w>": 1936, "tet</w>": 1937, "tigen</w>": 1938, "Bade": 1939, "Bier</w>": 1940, "Dach</w>": 1941, "El": 1942, "Gegenstand</w>": 1943, "Ker": 1944, "Kopf": 1945, "Schnee": 1946, "Uniform</w>": 1947, "Zigarette</w>": 1948, "apron</w>": 1949, "carries</w>": 1950, "die": 1951, "driving</w>": 1952, "erten</w>": 1953, "few</w>": 1954, "fil": 1955, "friends</w>": 1956, "fu": 1957, "hinten</w>": 1958, "horses</w>": 1959, "jungen</w>": 1960, "lead": 1961, "llen</w>": 1962, "make</w>": 1963, "pat": 1964, "perform</w>": 1965, "rela": 1966, "streckt</w>": 1967, "tele": 1968, "ven": 1969, "versuchen</w>": 1970, "yclists</w>": 1971, "Blumen": 1972, "Hü": 1973, "Lo": 1974, "Nummer</w>": 1975, "Sonne</w>": 1976, "Sta": 1977, "Winter": 1978, "biker</w>": 1979, "bowling</w>": 1980, "cake</w>": 1981, "chen": 1982, "do</w>": 1983, "ea": 1984, "hose</w>": 1985, "ier": 1986, "jekt</w>": 1987, "ked</w>": 1988, "lang": 1989, "leaves</w>": 1990, "lü": 1991, "mehreren</w>": 1992, "platz</w>": 1993, "sand": 1994, "skop</w>": 1995, "ssel</w>": 1996, "tasche</w>": 1997, "tisch</w>": 1998, "tä": 1999, "upp": 2000, "Le": 2001, "Mund</w>": 2002, "Schal</w>": 2003, "Stadt": 2004, "Tau": 2005, "ammer</w>": 2006, "ate": 2007, "beobachten</w>": 2008, "box": 2009, "cars</w>": 2010, "cigarette</w>": 2011, "cti": 2012, "cup</w>": 2013, "flower</w>": 2014, "fruit</w>": 2015, "fängt</w>": 2016, "gla": 2017, "ic</w>": 2018, "kn": 2019, "mer</w>": 2020, "mpol": 2021, "painted</w>": 2022, "parked</w>": 2023, "sau": 2024, "so</w>": 2025, "structure</w>": 2026, "teams</w>": 2027, "trinken</w>": 2028, "ture</w>": 2029, "Di": 2030, "Flagge</w>": 2031, "Schü": 2032, "Th": 2033, "Trikots</w>": 2034, "Zu": 2035, "athle": 2036, "belt</w>": 2037, "brille</w>": 2038, "del</w>": 2039, "dle</w>": 2040, "dun": 2041, "ening</w>": 2042, "eyes</w>": 2043, "farbener</w>": 2044, "farbenfro": 2045, "goggles</w>": 2046, "kniet</w>": 2047, "legt</w>": 2048, "mother</w>": 2049, "nah": 2050, "raucht</w>": 2051, "shot</w>": 2052, "smile</w>": 2053, "snowboarder</w>": 2054, "surfer</w>": 2055, "talks</w>": 2056, "tting</w>": 2057, "unt</w>": 2058, "uses</w>": 2059, "vendor</w>": 2060, "wand": 2061, "werfen</w>": 2062, "öffentlichen</w>": 2063, "Armen</w>": 2064, "Ferne</w>": 2065, "Gla": 2066, "Holz</w>": 2067, "Musik": 2068, "Schürze</w>": 2069, "Snowboarder</w>": 2070, "Spielzeu": 2071, "Stange</w>": 2072, "Stufen</w>": 2073, "Teenager</w>": 2074, "Tro": 2075, "ban": 2076, "beide</w>": 2077, "betrachten</w>": 2078, "bottle</w>": 2079, "ddle</w>": 2080, "dio</w>": 2081, "drums</w>": 2082, "flip</w>": 2083, "flying</w>": 2084, "len": 2085, "leu": 2086, "lit</w>": 2087, "martial</w>": 2088, "nic</w>": 2089, "nicht</w>": 2090, "rotes</w>": 2091, "rutscht</w>": 2092, "schirm</w>": 2093, "schu": 2094, "skateboarder</w>": 2095, "smoking</w>": 2096, "ther</w>": 2097, "vehicle</w>": 2098, "verschneiten</w>": 2099, "violett": 2100, "Gehsteig</w>": 2101, "Rampe</w>": 2102, "Veranstaltung</w>": 2103, "Wanderer</w>": 2104, "amp": 2105, "coffee</w>": 2106, "concert</w>": 2107, "del": 2108, "ff</w>": 2109, "grüner</w>": 2110, "hit</w>": 2111, "home</w>": 2112, "indi": 2113, "kni": 2114, "lächeln": 2115, "mütze</w>": 2116, "pit": 2117, "poin": 2118, "posi": 2119, "rocky</w>": 2120, "sig": 2121, "spra": 2122, "Boy</w>": 2123, "Eis": 2124, "Gol": 2125, "Group</w>": 2126, "Par": 2127, "Stre": 2128, "alle</w>": 2129, "amm": 2130, "ari": 2131, "clim": 2132, "coming</w>": 2133, "fel": 2134, "flags</w>": 2135, "fol": 2136, "folgt</w>": 2137, "fro": 2138, "gele": 2139, "guckt</w>": 2140, "hl</w>": 2141, "jackets</w>": 2142, "kicking</w>": 2143, "ku": 2144, "micro": 2145, "newspaper</w>": 2146, "paint</w>": 2147, "prepares</w>": 2148, "rai": 2149, "safety</w>": 2150, "schi": 2151, "swinging</w>": 2152, "tuch</w>": 2153, "u</w>": 2154, "viele</w>": 2155, "waves</w>": 2156, "wä": 2157, "younger</w>": 2158, "Er": 2159, "Ko": 2160, "Mu": 2161, "Ne": 2162, "Tennisball</w>": 2163, "alley</w>": 2164, "ap</w>": 2165, "außerhalb</w>": 2166, "blonden</w>": 2167, "bucket</w>": 2168, "case</w>": 2169, "cker</w>": 2170, "conversation</w>": 2171, "costumes</w>": 2172, "dy</w>": 2173, "gather</w>": 2174, "ged</w>": 2175, "gentleman</w>": 2176, "gloves</w>": 2177, "gold</w>": 2178, "har": 2179, "kampf</w>": 2180, "ken": 2181, "no</w>": 2182, "orient": 2183, "practicing</w>": 2184, "rail</w>": 2185, "spectators</w>": 2186, "spor": 2187, "ssen": 2188, "stro": 2189, "zeit</w>": 2190, "zogen</w>": 2191, "ärm": 2192, "Bl": 2193, "Cheer": 2194, "Gemüse</w>": 2195, "Kostümen</w>": 2196, "Rad": 2197, "Regen": 2198, "Schutz": 2199, "anischen</w>": 2200, "bearded</w>": 2201, "bunch</w>": 2202, "bärtiger</w>": 2203, "cement</w>": 2204, "cleaning</w>": 2205, "competition</w>": 2206, "dass</w>": 2207, "different</w>": 2208, "fall": 2209, "greift</w>": 2210, "kel</w>": 2211, "ladder</w>": 2212, "listening</w>": 2213, "parking</w>": 2214, "roof</w>": 2215, "rou": 2216, "same</w>": 2217, "scene</w>": 2218, "stern</w>": 2219, "this</w>": 2220, "ziehen</w>": 2221, "Asiat": 2222, "Auf</w>": 2223, "Baseball</w>": 2224, "Bett</w>": 2225, "Instrumen": 2226, "Ja": 2227, "Statue</w>": 2228, "ani": 2229, "bikini</w>": 2230, "blanket</w>": 2231, "blaues</w>": 2232, "br": 2233, "cher": 2234, "ctive</w>": 2235, "ehr</w>": 2236, "gaz": 2237, "hea": 2238, "hlen</w>": 2239, "hne</w>": 2240, "hold</w>": 2241, "hän": 2242, "items</w>": 2243, "kti": 2244, "lange</w>": 2245, "mem": 2246, "om</w>": 2247, "onen</w>": 2248, "per</w>": 2249, "pin": 2250, "ppe</w>": 2251, "produ": 2252, "signs</w>": 2253, "skateboarding</w>": 2254, "sprin": 2255, "staring</w>": 2256, "stat": 2257, "stän": 2258, "surft</w>": 2259, "there</w>": 2260, "wait</w>": 2261, "Aufschrift</w>": 2262, "Boo": 2263, "Fre": 2264, "Gri": 2265, "Kleidern</w>": 2266, "Musiker</w>": 2267, "Mü": 2268, "Nacht</w>": 2269, "audience</w>": 2270, "balloon</w>": 2271, "bewe": 2272, "bicycles</w>": 2273, "bull</w>": 2274, "cer</w>": 2275, "cle</w>": 2276, "clu": 2277, "cro": 2278, "cut</w>": 2279, "desk</w>": 2280, "dessen</w>": 2281, "drinks</w>": 2282, "empty</w>": 2283, "ev": 2284, "fotografiert</w>": 2285, "gelbem</w>": 2286, "giving</w>": 2287, "gn": 2288, "hau": 2289, "hilft</w>": 2290, "hr</w>": 2291, "ines</w>": 2292, "kaufen</w>": 2293, "klettern</w>": 2294, "köpfi": 2295, "lachen</w>": 2296, "lage</w>": 2297, "lawn</w>": 2298, "liches</w>": 2299, "liert</w>": 2300, "meal</w>": 2301, "ped</w>": 2302, "pile</w>": 2303, "pped</w>": 2304, "railing</w>": 2305, "rand": 2306, "schaf": 2307, "schuhen</w>": 2308, "tack": 2309, "ty": 2310, "various</w>": 2311, "zed</w>": 2312, "Basketballspieler</w>": 2313, "Kostüm</w>": 2314, "Mannschaft</w>": 2315, "Mi": 2316, "Skifahrer</w>": 2317, "Someone</w>": 2318, "Sonnenuntergang</w>": 2319, "Stro": 2320, "Tän": 2321, "Wor": 2322, "ausrüstung</w>": 2323, "beiden</w>": 2324, "berei": 2325, "beugt</w>": 2326, "bir": 2327, "ckten</w>": 2328, "country</w>": 2329, "ct</w>": 2330, "gelbe</w>": 2331, "gets</w>": 2332, "id</w>": 2333, "leaps</w>": 2334, "männ": 2335, "männliche</w>": 2336, "onlookers</w>": 2337, "pil": 2338, "poli": 2339, "reden</w>": 2340, "rodeo</w>": 2341, "schreibt</w>": 2342, "shoo": 2343, "ski</w>": 2344, "sport": 2345, "stell": 2346, "städtischen</w>": 2347, "ummer</w>": 2348, "verk": 2349, "üst</w>": 2350, "Art</w>": 2351, "Fe": 2352, "Frei": 2353, "Girl</w>": 2354, "Haare</w>": 2355, "Herr</w>": 2356, "Hüten</w>": 2357, "Leiter</w>": 2358, "Maschine</w>": 2359, "Mat": 2360, "Mikro": 2361, "New</w>": 2362, "Polizisten</w>": 2363, "Sechs</w>": 2364, "Spie": 2365, "Wer": 2366, "Zelt</w>": 2367, "bat": 2368, "beg": 2369, "bli": 2370, "bowl</w>": 2371, "display</w>": 2372, "dium</w>": 2373, "fallen</w>": 2374, "fle": 2375, "gathering</w>": 2376, "gebäude</w>": 2377, "hot</w>": 2378, "hou": 2379, "kur": 2380, "lt</w>": 2381, "mauer</w>": 2382, "plane</w>": 2383, "pointing</w>": 2384, "roller</w>": 2385, "schönen</w>": 2386, "sliding</w>": 2387, "sort</w>": 2388, "stru": 2389, "sun": 2390, "surfing</w>": 2391, "unbefestig": 2392, "uni": 2393, "vegetables</w>": 2394, "was</w>": 2395, "äufer</w>": 2396, "überquert</w>": 2397, "Bik": 2398, "Bul": 2399, "Co": 2400, "Damen</w>": 2401, "Flug": 2402, "Indian</w>": 2403, "Krei": 2404, "Lap": 2405, "Lau": 2406, "Mit": 2407, "Tre": 2408, "Tür</w>": 2409, "Ufer</w>": 2410, "Ziegel": 2411, "anz</w>": 2412, "art": 2413, "basket</w>": 2414, "bird</w>": 2415, "blä": 2416, "cers</w>": 2417, "chasing</w>": 2418, "class</w>": 2419, "facing</w>": 2420, "feet</w>": 2421, "ging</w>": 2422, "hof</w>": 2423, "hole</w>": 2424, "hört</w>": 2425, "individu": 2426, "kaya": 2427, "motorc": 2428, "nacktem</w>": 2429, "obser": 2430, "pres": 2431, "sal": 2432, "schlagen</w>": 2433, "sport</w>": 2434, "sses</w>": 2435, "streets</w>": 2436, "teena": 2437, "trun": 2438, "uh": 2439, "versammeln</w>": 2440, "wet</w>": 2441, "Bar</w>": 2442, "Die": 2443, "Fahrrad": 2444, "Flu": 2445, "Obst</w>": 2446, "Sweatshirt</w>": 2447, "Za": 2448, "attemp": 2449, "before</w>": 2450, "beleu": 2451, "bers</w>": 2452, "boot</w>": 2453, "ced</w>": 2454, "chteten</w>": 2455, "cir": 2456, "competing</w>": 2457, "eling</w>": 2458, "froamerikan": 2459, "gestreiftem</w>": 2460, "happy</w>": 2461, "helmets</w>": 2462, "hnen</w>": 2463, "ire</w>": 2464, "keit</w>": 2465, "mask</w>": 2466, "pass</w>": 2467, "platform</w>": 2468, "schrei": 2469, "schö": 2470, "silver</w>": 2471, "spea": 2472, "speaking</w>": 2473, "spo": 2474, "sports</w>": 2475, "stop</w>": 2476, "stret": 2477, "wedding</w>": 2478, "wen": 2479, "wär": 2480, "xoph": 2481, "zt</w>": 2482, "Cl": 2483, "Kids</w>": 2484, "Leine</w>": 2485, "Rutsche</w>": 2486, "Schuhen</w>": 2487, "Six</w>": 2488, "Tor</w>": 2489, "Touri": 2490, "assen</w>": 2491, "chest": 2492, "classroom</w>": 2493, "cts</w>": 2494, "gle</w>": 2495, "gli": 2496, "huge</w>": 2497, "ige</w>": 2498, "jün": 2499, "kap": 2500, "lar": 2501, "leeren</w>": 2502, "lights</w>": 2503, "maschine</w>": 2504, "match</w>": 2505, "ouse</w>": 2506, "rosa": 2507, "rothaari": 2508, "rt</w>": 2509, "sculp": 2510, "sprechen</w>": 2511, "star": 2512, "surfboard</w>": 2513, "tball</w>": 2514, "tiger</w>": 2515, "tran": 2516, "tries</w>": 2517, "ural</w>": 2518, "uring</w>": 2519, "vy</w>": 2520, "werk</w>": 2521, "zeich": 2522, "zimmer</w>": 2523, "2": 2524, "4</w>": 2525, "Bikini</w>": 2526, "Brunnen</w>": 2527, "Eimer</w>": 2528, "Gar": 2529, "Grill</w>": 2530, "Hockey": 2531, "Kopfhör": 2532, "Läufer</w>": 2533, "Parade</w>": 2534, "Park": 2535, "Pfad</w>": 2536, "Polizist</w>": 2537, "Tur": 2538, "Vater</w>": 2539, "Wald": 2540, "Westen</w>": 2541, "Wohn": 2542, "blonder</w>": 2543, "boden</w>": 2544, "bride</w>": 2545, "cker": 2546, "climbs</w>": 2547, "convers": 2548, "cover": 2549, "des": 2550, "farbenem</w>": 2551, "fighting</w>": 2552, "gb": 2553, "genießen</w>": 2554, "haariger</w>": 2555, "kleide": 2556, "lila": 2557, "nach": 2558, "purse</w>": 2559, "rö": 2560, "screen</w>": 2561, "setzt</w>": 2562, "sings</w>": 2563, "ske</w>": 2564, "sticks</w>": 2565, "students</w>": 2566, "tradition": 2567, "traditional</w>": 2568, "waits</w>": 2569, "wra": 2570, "Badeanzug</w>": 2571, "Basketball": 2572, "Col": 2573, "Computer</w>": 2574, "Diese</w>": 2575, "Eis</w>": 2576, "Fahrzeug</w>": 2577, "Fisch</w>": 2578, "Gelän": 2579, "Gesich": 2580, "Geträn": 2581, "Git": 2582, "Hel": 2583, "Kir": 2584, "Kletter": 2585, "Pass": 2586, "Reifen</w>": 2587, "Rodeo</w>": 2588, "S</w>": 2589, "Stühlen</w>": 2590, "Trick</w>": 2591, "Umgebung</w>": 2592, "abge": 2593, "ander": 2594, "animal</w>": 2595, "arbeiter</w>": 2596, "arr": 2597, "asiatischen</w>": 2598, "bott": 2599, "bre": 2600, "break</w>": 2601, "chte</w>": 2602, "color": 2603, "counter</w>": 2604, "crou": 2605, "decor": 2606, "dry</w>": 2607, "durch": 2608, "eibe</w>": 2609, "erischen</w>": 2610, "ey": 2611, "gelt</w>": 2612, "genden</w>": 2613, "hang</w>": 2614, "inger</w>": 2615, "ity</w>": 2616, "jagt</w>": 2617, "kissing</w>": 2618, "kommen</w>": 2619, "mall</w>": 2620, "medi": 2621, "military</w>": 2622, "nung</w>": 2623, "pink": 2624, "reu": 2625, "seen</w>": 2626, "shed</w>": 2627, "silber": 2628, "swee": 2629, "tops</w>": 2630, "tow": 2631, "town</w>": 2632, "tskleidung</w>": 2633, "tung</w>": 2634, "visi": 2635, "weibli": 2636, "wil": 2637, "öp": 2638, "Al": 2639, "Ende</w>": 2640, "Feuer</w>": 2641, "Gei": 2642, "Getränk</w>": 2643, "No": 2644, "Over": 2645, "Regen</w>": 2646, "Schlagzeug</w>": 2647, "So": 2648, "bü": 2649, "cked</w>": 2650, "deo": 2651, "dre": 2652, "eig": 2653, "emon": 2654, "entspan": 2655, "fel</w>": 2656, "gekleideten</w>": 2657, "gelbes</w>": 2658, "gewi": 2659, "khaki": 2660, "kun": 2661, "län": 2662, "marathon</w>": 2663, "ohne</w>": 2664, "range</w>": 2665, "site</w>": 2666, "skating</w>": 2667, "skier</w>": 2668, "sof": 2669, "sor": 2670, "stair": 2671, "stroller</w>": 2672, "tag</w>": 2673, "tau": 2674, "urban</w>": 2675, "vol": 2676, "wobei</w>": 2677, "woo": 2678, "äum": 2679, "5</w>": 2680, "Berg": 2681, "Braut</w>": 2682, "Erwachsener</w>": 2683, "Konzert</w>": 2684, "Mitt": 2685, "Pa": 2686, "Pap": 2687, "Pflan": 2688, "Plastik": 2689, "Regenschirm</w>": 2690, "Schutzhelm</w>": 2691, "Soldaten</w>": 2692, "Wellen</w>": 2693, "York</w>": 2694, "ams</w>": 2695, "arben</w>": 2696, "ath": 2697, "att": 2698, "braunem</w>": 2699, "chtung</w>": 2700, "din": 2701, "diving</w>": 2702, "dreht</w>": 2703, "dunkl": 2704, "endes</w>": 2705, "erbla": 2706, "ett</w>": 2707, "females</w>": 2708, "grauem</w>": 2709, "grüne</w>": 2710, "ily</w>": 2711, "inmitten</w>": 2712, "kneeling</w>": 2713, "lap</w>": 2714, "lesen</w>": 2715, "nea": 2716, "nie": 2717, "nis</w>": 2718, "out": 2719, "outfits</w>": 2720, "ppi": 2721, "riesigen</w>": 2722, "samm": 2723, "schwingt</w>": 2724, "schü": 2725, "sement</w>": 2726, "shoulder</w>": 2727, "sunset</w>": 2728, "talk</w>": 2729, "throw</w>": 2730, "tiert</w>": 2731, "walkway</w>": 2732, "weiter": 2733, "writing</w>": 2734, "wur": 2735, "Erwachsenen</w>": 2736, "Fahrer</w>": 2737, "Foo": 2738, "Fotogra": 2739, "Gegend</w>": 2740, "Handschuhen</w>": 2741, "Hoch": 2742, "Hän": 2743, "Instrument</w>": 2744, "Leder": 2745, "Luf": 2746, "Motorradfahrer</w>": 2747, "Parkplatz</w>": 2748, "Schw": 2749, "Sohn</w>": 2750, "Uniformen</w>": 2751, "Volleyball</w>": 2752, "Win": 2753, "amerikan": 2754, "anderes</w>": 2755, "anten</w>": 2756, "ark</w>": 2757, "aro": 2758, "arre</w>": 2759, "attempting</w>": 2760, "berühr": 2761, "block</w>": 2762, "bung</w>": 2763, "dert</w>": 2764, "ehen</w>": 2765, "ement</w>": 2766, "ence</w>": 2767, "eyboard</w>": 2768, "gemeinsam</w>": 2769, "gepfla": 2770, "hüp": 2771, "kostü": 2772, "nel</w>": 2773, "oper": 2774, "rec": 2775, "reiten</w>": 2776, "ristmas</w>": 2777, "ro</w>": 2778, "rown</w>": 2779, "runner</w>": 2780, "sail": 2781, "scooter</w>": 2782, "sel</w>": 2783, "shad": 2784, "soldi": 2785, "span": 2786, "sser</w>": 2787, "tur</w>": 2788, "van</w>": 2789, "vie": 2790, "waving</w>": 2791, "älteren</w>": 2792, "Bereich</w>": 2793, "Bergen</w>": 2794, "Feld": 2795, "Fl": 2796, "Gebäuden</w>": 2797, "Geländemotor": 2798, "Hinter": 2799, "Kinderwagen</w>": 2800, "Korb</w>": 2801, "Nach": 2802, "Seifenbla": 2803, "Shirts</w>": 2804, "Sprin": 2805, "Straßen</w>": 2806, "Straßenecke</w>": 2807, "Straßenrand</w>": 2808, "Weiß</w>": 2809, "Werk": 2810, "alls</w>": 2811, "ange</w>": 2812, "atten": 2813, "balan": 2814, "blowing</w>": 2815, "cand": 2816, "clou": 2817, "course</w>": 2818, "dge</w>": 2819, "exam": 2820, "five</w>": 2821, "gern</w>": 2822, "lächelnd</w>": 2823, "made</w>": 2824, "motor": 2825, "ners</w>": 2826, "offenen</w>": 2827, "räder</w>": 2828, "schlä": 2829, "schütt": 2830, "ssion</w>": 2831, "starrt</w>": 2832, "sterten</w>": 2833, "str": 2834, "tables</w>": 2835, "teln</w>": 2836, "tü": 2837, "ulp": 2838, "viel": 2839, "violin</w>": 2840, "wear</w>": 2841, "wendet</w>": 2842, "wo</w>": 2843, "wö": 2844, "öcken</w>": 2845, "öpfen</w>": 2846, "Arbeit</w>": 2847, "Arme</w>": 2848, "Baustelle</w>": 2849, "Fern": 2850, "Fü": 2851, "Gu": 2852, "Kat": 2853, "Laden</w>": 2854, "Mikrophon</w>": 2855, "Out": 2856, "Schoß</w>": 2857, "Sän": 2858, "Team</w>": 2859, "Tor": 2860, "adverti": 2861, "angen</w>": 2862, "aring</w>": 2863, "arn": 2864, "bald</w>": 2865, "base</w>": 2866, "bubbles</w>": 2867, "business</w>": 2868, "cap": 2869, "close</w>": 2870, "coo": 2871, "eini": 2872, "ellen</w>": 2873, "father</w>": 2874, "ffen</w>": 2875, "fully</w>": 2876, "goo": 2877, "gymna": 2878, "laden</w>": 2879, "land</w>": 2880, "mirror</w>": 2881, "ms</w>": 2882, "officer</w>": 2883, "overlooking</w>": 2884, "perform": 2885, "pinkfarbenen</w>": 2886, "rain": 2887, "refle": 2888, "rolling</w>": 2889, "says</w>": 2890, "schwarzes</w>": 2891, "schwimmen</w>": 2892, "singen</w>": 2893, "spritzt</w>": 2894, "sty": 2895, "them": 2896, "umarmt</w>": 2897, "verschie": 2898, "wachsenen</w>": 2899, "well</w>": 2900, "zurück</w>": 2901, "Fel": 2902, "Jacken</w>": 2903, "Krawatte</w>": 2904, "Land</w>": 2905, "Mili": 2906, "Müll": 2907, "Pause</w>": 2908, "Q": 2909, "Rot</w>": 2910, "Skateboarder</w>": 2911, "Spi": 2912, "Waren</w>": 2913, "arri": 2914, "arti": 2915, "ary</w>": 2916, "ative</w>": 2917, "balloons</w>": 2918, "celebra": 2919, "conta": 2920, "cour": 2921, "cy</w>": 2922, "dent</w>": 2923, "discu": 2924, "dunkelhäutiger</w>": 2925, "ee</w>": 2926, "eop": 2927, "fast</w>": 2928, "fixing</w>": 2929, "foll": 2930, "ften</w>": 2931, "grasbe": 2932, "grünes</w>": 2933, "ja": 2934, "leans</w>": 2935, "low</w>": 2936, "lung</w>": 2937, "mat</w>": 2938, "mitt": 2939, "offen": 2940, "orangefarbener</w>": 2941, "pain": 2942, "plate</w>": 2943, "putzt</w>": 2944, "stelle</w>": 2945, "train": 2946, "ungs": 2947, "unta": 2948, "val</w>": 2949, "wegs</w>": 2950, "Backstein": 2951, "Compu": 2952, "Construction</w>": 2953, "E</w>": 2954, "Hin": 2955, "Jugendlicher</w>": 2956, "Lad": 2957, "Meer": 2958, "Schreibtisch</w>": 2959, "Sie": 2960, "Tanz": 2961, "Tri": 2962, "Vogel</w>": 2963, "Vordergrund</w>": 2964, "Wasch": 2965, "aches</w>": 2966, "alone</w>": 2967, "aren</w>": 2968, "artist</w>": 2969, "band": 2970, "bath": 2971, "bb": 2972, "bin": 2973, "blon": 2974, "brea": 2975, "brightly</w>": 2976, "clown</w>": 2977, "collar</w>": 2978, "cting</w>": 2979, "ek</w>": 2980, "faces</w>": 2981, "foreground</w>": 2982, "gegen": 2983, "gegn": 2984, "gleich</w>": 2985, "gym</w>": 2986, "helping</w>": 2987, "hö": 2988, "ival</w>": 2989, "jump": 2990, "kurz</w>": 2991, "leather</w>": 2992, "leg</w>": 2993, "ley": 2994, "lies</w>": 2995, "life</w>": 2996, "mann</w>": 2997, "musicians</w>": 2998, "mü": 2999, "new": 3000, "ord": 3001, "ouch</w>": 3002, "prin": 3003, "repariert</w>": 3004, "rie": 3005, "runette</w>": 3006, "schauk": 3007, "schnei": 3008, "sol": 3009, "ssing</w>": 3010, "stic</w>": 3011, "swim</w>": 3012, "tunnel</w>": 3013, "uck</w>": 3014, "umbrellas</w>": 3015, "untersu": 3016, "v</w>": 3017, "wachsen": 3018, "Ak": 3019, "Anz": 3020, "Bre": 3021, "Cowboy": 3022, "Cowboy</w>": 3023, "Dra": 3024, "Fahrradfahrer</w>": 3025, "Garten</w>": 3026, "Kuchen</w>": 3027, "Or": 3028, "Party</w>": 3029, "Rad</w>": 3030, "Sandalen</w>": 3031, "Schatten</w>": 3032, "Schil": 3033, "Schnau": 3034, "Sie</w>": 3035, "Tank": 3036, "The": 3037, "Vol": 3038, "amm</w>": 3039, "arbei": 3040, "asleep</w>": 3041, "balls</w>": 3042, "bedi": 3043, "bis</w>": 3044, "bow": 3045, "comple": 3046, "ef": 3047, "electric</w>": 3048, "enjoy</w>": 3049, "eys</w>": 3050, "farbene</w>": 3051, "form</w>": 3052, "füllten</w>": 3053, "ganz</w>": 3054, "gebiet</w>": 3055, "gegeneinander</w>": 3056, "gekleidetes</w>": 3057, "gestellt</w>": 3058, "giant</w>": 3059, "glück": 3060, "gut</w>": 3061, "haus</w>": 3062, "headphones</w>": 3063, "hellhäu": 3064, "kor": 3065, "kurzer</w>": 3066, "legs</w>": 3067, "mach": 3068, "meat</w>": 3069, "ock</w>": 3070, "ower</w>": 3071, "ple": 3072, "repa": 3073, "skate</w>": 3074, "spen": 3075, "strecke</w>": 3076, "unch</w>": 3077, "vers": 3078, "verschiedene</w>": 3079, "voll</w>": 3080, "vollen</w>": 3081, "wheel</w>": 3082, "Ä": 3083, "Ü": 3084, "ön": 3085, "0</w>": 3086, "Bowling": 3087, "Einkauf": 3088, "Einkaufswagen</w>": 3089, "Fahrrädern</w>": 3090, "Fi": 3091, "Footballspieler</w>": 3092, "Gegen": 3093, "Groß": 3094, "Kunden</w>": 3095, "Last": 3096, "Roller</w>": 3097, "Sal": 3098, "Skateboard": 3099, "V</w>": 3100, "among</w>": 3101, "asiatisches</w>": 3102, "balanciert</w>": 3103, "bat</w>": 3104, "bedeckt</w>": 3105, "beige</w>": 3106, "bes</w>": 3107, "custom": 3108, "eg": 3109, "ents</w>": 3110, "falling</w>": 3111, "führung</w>": 3112, "golf</w>": 3113, "groc": 3114, "hinter": 3115, "hood</w>": 3116, "hund</w>": 3117, "hängen</w>": 3118, "ini": 3119, "jemandem</w>": 3120, "lassen</w>": 3121, "lif": 3122, "lippe</w>": 3123, "makes</w>": 3124, "mm</w>": 3125, "mud</w>": 3126, "nam": 3127, "office</w>": 3128, "passing</w>": 3129, "pea": 3130, "prü": 3131, "rail": 3132, "rying</w>": 3133, "sandals</w>": 3134, "schaft": 3135, "stadium</w>": 3136, "steigen</w>": 3137, "swings</w>": 3138, "tom": 3139, "ttern</w>": 3140, "tton</w>": 3141, "unk": 3142, "verkaufen</w>": 3143, "vice</w>": 3144, "ward</w>": 3145, "washing</w>": 3146, "wears</w>": 3147, "wind": 3148, "with": 3149, "zen": 3150, "Akkorde": 3151, "Badehose</w>": 3152, "Ban": 3153, "Bet": 3154, "Blä": 3155, "Erde</w>": 3156, "Fell</w>": 3157, "Flei": 3158, "Glas</w>": 3159, "Kran": 3160, "Lauf": 3161, "Netz</w>": 3162, "Pferden</w>": 3163, "Rück": 3164, "Schau": 3165, "Schiedsrichter</w>": 3166, "Schlau": 3167, "Stein</w>": 3168, "Stiefeln</w>": 3169, "Wand": 3170, "Weihnachts": 3171, "afé</w>": 3172, "ai": 3173, "alm</w>": 3174, "aren": 3175, "canoe</w>": 3176, "chi": 3177, "chinesi": 3178, "chts</w>": 3179, "cloth</w>": 3180, "doorway</w>": 3181, "einge": 3182, "ern": 3183, "fon</w>": 3184, "friend</w>": 3185, "fällt</w>": 3186, "gegenüber</w>": 3187, "geschäf": 3188, "goal</w>": 3189, "guit": 3190, "han": 3191, "heads</w>": 3192, "held</w>": 3193, "hiking</w>": 3194, "hin</w>": 3195, "hör": 3196, "ip": 3197, "korb</w>": 3198, "küsst</w>": 3199, "leucht": 3200, "mann": 3201, "multicolored</w>": 3202, "musical</w>": 3203, "ny</w>": 3204, "officers</w>": 3205, "ope</w>": 3206, "particip": 3207, "photographer</w>": 3208, "pier</w>": 3209, "ppen": 3210, "schmutz": 3211, "sk</w>": 3212, "skiing</w>": 3213, "toys</w>": 3214, "tter": 3215, "unge</w>": 3216, "winkt</w>": 3217, "wunder": 3218, "zel": 3219, "zier": 3220, "zä": 3221, "(</w>": 3222, "Angel": 3223, "Felswand</w>": 3224, "For": 3225, "Halsband</w>": 3226, "Kajak</w>": 3227, "Kap": 3228, "Kla": 3229, "Klassenzimmer</w>": 3230, "Künstler</w>": 3231, "Menschen": 3232, "Mobiltelefon</w>": 3233, "Pers": 3234, "Schulter</w>": 3235, "Schüler</w>": 3236, "Sh": 3237, "Snowboard</w>": 3238, "Surfbrett</w>": 3239, "Tennis</w>": 3240, "Ter": 3241, "Tu": 3242, "Whi": 3243, "Zimm": 3244, "accordion</w>": 3245, "afrikan": 3246, "ann": 3247, "assi": 3248, "ator</w>": 3249, "attoo": 3250, "auch</w>": 3251, "aufger": 3252, "barefoot</w>": 3253, "church</w>": 3254, "dig": 3255, "dirty</w>": 3256, "dler</w>": 3257, "drawing</w>": 3258, "dur": 3259, "enter</w>": 3260, "ffic</w>": 3261, "fini": 3262, "för": 3263, "heben</w>": 3264, "hellbrauner</w>": 3265, "inclu": 3266, "irgend": 3267, "laptop</w>": 3268, "leap": 3269, "leash</w>": 3270, "ler": 3271, "luf": 3272, "males</w>": 3273, "mel": 3274, "of": 3275, "orangefarbenem</w>": 3276, "phones</w>": 3277, "picking</w>": 3278, "prep": 3279, "profession": 3280, "rasi": 3281, "reaching</w>": 3282, "rung</w>": 3283, "sern</w>": 3284, "smo": 3285, "spi": 3286, "stellung</w>": 3287, "tattoo</w>": 3288, "teenage</w>": 3289, "the": 3290, "throws</w>": 3291, "ton</w>": 3292, "towier": 3293, "ups</w>": 3294, "video</w>": 3295, "voll": 3296, "!</w>": 3297, ")</w>": 3298, "BMX</w>": 3299, "Blau</w>": 3300, "Bru": 3301, "Chinese</w>": 3302, "Es</w>": 3303, "Farb": 3304, "Hochzei": 3305, "Höhe</w>": 3306, "Jean": 3307, "Kapuzen": 3308, "Klein": 3309, "Ku": 3310, "Loch</w>": 3311, "Met": 3312, "Oberteilen</w>": 3313, "Poli": 3314, "Schi": 3315, "Schlitten</w>": 3316, "Schläger</w>": 3317, "Sicherhei": 3318, "Stand</w>": 3319, "Teena": 3320, "aari": 3321, "armen</w>": 3322, "aufge": 3323, "belebte</w>": 3324, "below</w>": 3325, "bow</w>": 3326, "daughter</w>": 3327, "digging</w>": 3328, "ehrt</w>": 3329, "foot</w>": 3330, "fuß": 3331, "fün": 3332, "gleitet</w>": 3333, "ican</w>": 3334, "kin": 3335, "locks</w>": 3336, "lächelnde</w>": 3337, "mid</w>": 3338, "move</w>": 3339, "nei": 3340, "own": 3341, "pati": 3342, "performance</w>": 3343, "rad": 3344, "rut": 3345, "schw": 3346, "sea": 3347, "shallow</w>": 3348, "sil": 3349, "spre": 3350, "ta</w>": 3351, "tee": 3352, "tou": 3353, "Bri": 3354, "Wal": 3355, "asi": 3356, "beh": 3357, "emp": 3358, "kei": 3359, "ong</w>": 3360, "weiß": 3361, "zusam": 3362, "Fels": 3363, "Mau": 3364, "Pul": 3365, "Schlag": 3366, "Sof": 3367, "Wei": 3368, "Zie": 3369, "aun</w>": 3370, "auran": 3371, "carri": 3372, "dion</w>": 3373, "figh": 3374, "ind</w>": 3375, "jun": 3376, "kel": 3377, "ones</w>": 3378, "ore</w>": 3379, "pur": 3380, "schwarz": 3381, "scre": 3382, "teten</w>": 3383, "trä": 3384, "zo": 3385, "6": 3386, "8": 3387, "9": 3388, "Ri": 3389, "bedeck": 3390, "ject</w>": 3391, "oll": 3392, "shoul": 3393, "spa": 3394, "sst</w>": 3395, "Feuer": 3396, "Fuß": 3397, "Indi": 3398, "Schutzhel": 3399, "Un": 3400, "dem": 3401, "gelb": 3402, "isches</w>": 3403, "loo": 3404, "owing</w>": 3405, "runnen</w>": 3406, "tun": 3407, "Flag": 3408, "Geh": 3409, "Rest": 3410, "asiat": 3411, "aum</w>": 3412, "brett</w>": 3413, "kind</w>": 3414, "mit": 3415, "oran": 3416, "ori": 3417, "ski": 3418, "ve": 3419, "wri": 3420, "Pu": 3421, "Scho": 3422, "Wass": 3423, "athon</w>": 3424, "dunkelhäu": 3425, "enjo": 3426, "flan": 3427, "gep": 3428, "gestreif": 3429, "practi": 3430, "q": 3431, "repar": 3432, "rüstung</w>": 3433, "stä": 3434, "Jugend": 3435, "Mann": 3436, "Schne": 3437, "aching</w>": 3438, "anstaltung</w>": 3439, "entlan": 3440, "ffee</w>": 3441, "fon": 3442, "foo": 3443, "geben</w>": 3444, "haari": 3445, "hn</w>": 3446, "hom": 3447, "rädern</w>": 3448, "sack</w>": 3449, "sell": 3450, "try</w>": 3451, "ut": 3452, "whi": 3453, "yc": 3454, "ycle</w>": 3455, "ycles</w>": 3456, "Kra": 3457, "We": 3458, "becken</w>": 3459, "kari": 3460, "pra": 3461, "schein": 3462, "stein": 3463, "stück</w>": 3464, "Chin": 3465, "Con": 3466, "Ober": 3467, "Weihnach": 3468, "afri": 3469, "appe": 3470, "bedeckten</w>": 3471, "fotografi": 3472, "mt</w>": 3473, "play": 3474, "ram": 3475, "rand</w>": 3476, "scar": 3477, "son": 3478, "swimm": 3479, "uppe</w>": 3480, "Blu": 3481, "Gem": 3482, "Kin": 3483, "Klei": 3484, "Som": 3485, "displa": 3486, "ful</w>": 3487, "rea": 3488, "rol": 3489, "tos</w>": 3490, "ünstler</w>": 3491, "Fen": 3492, "Fo": 3493, "Kinder": 3494, "Zuschau": 3495, "ards</w>": 3496, "ehnt</w>": 3497, "farben": 3498, "flow": 3499, "frei": 3500, "fru": 3501, "gentle": 3502, "happ": 3503, "musi": 3504, "nack": 3505, "orange": 3506, "teilen</w>": 3507, "ters": 3508, ":": 3509, "Chil": 3510, "Kor": 3511, "Mäd": 3512, "Stü": 3513, "befest": 3514, "bik": 3515, "grei": 3516, "jemand": 3517, "lass": 3518, "ron</w>": 3519, "skir": 3520, "stik": 3521, "tion": 3522, "ulti": 3523, "&": 3524, "3": 3525, "Che": 3526, "Einkaufs": 3527, "Män": 3528, "Nä": 3529, "ause</w>": 3530, "backpa": 3531, "biet</w>": 3532, "elec": 3533, "emand</w>": 3534, "fäl": 3535, "iting</w>": 3536, "laugh": 3537, "män": 3538, "ouri": 3539, "too</w>": 3540, "yo": 3541, "Blum": 3542, "Je": 3543, "Ruck": 3544, "Sold": 3545, "ame</w>": 3546, "amerik": 3547, "anim": 3548, "benu": 3549, "beu": 3550, "cell": 3551, "ckey": 3552, "dding</w>": 3553, "hil": 3554, "kauf": 3555, "ligh": 3556, "neh": 3557, "sbe": 3558, "skateboar": 3559, "spri": 3560, "struc": 3561, "xt</w>": 3562, "Ö": 3563, "ält</w>": 3564, "Gewä": 3565, "bub": 3566, "ief": 3567, "jers": 3568, "ley</w>": 3569, "mehr": 3570, "musici": 3571, "outh</w>": 3572, "read": 3573, "ree</w>": 3574, "rel": 3575, "riesi": 3576, "schri": 3577, "steig</w>": 3578, "ünst": 3579, "Amer": 3580, "Brau": 3581, "Kun": 3582, "Schli": 3583, "brau": 3584, "gend</w>": 3585, "ih": 3586, "instrum": 3587, "lle</w>": 3588, "met": 3589, "num": 3590, "ort": 3591, "schnee": 3592, "stom": 3593, "whe": 3594, "Afri": 3595, "Snow": 3596, "Surf": 3597, "Ty": 3598, "coun": 3599, "ems</w>": 3600, "glo": 3601, "läche</w>": 3602, "mid": 3603, "multi": 3604, "rough</w>": 3605, "schäf": 3606, "surf": 3607, "vege": 3608, "Bow": 3609, "Cow": 3610, "Jack": 3611, "Lei": 3612, "Skateboar": 3613, "Uni": 3614, "ban</w>": 3615, "bles</w>": 3616, "compe": 3617, "ean</w>": 3618, "gestell": 3619, "menge</w>": 3620, "opping</w>": 3621, "rücke</w>": 3622, "sbee</w>": 3623, "schmu": 3624, "scu": 3625, "surroun": 3626, "tat": 3627, "vehi": 3628, "wn</w>": 3629, "älter": 3630, "Schir": 3631, "alen</w>": 3632, "bask": 3633, "ct": 3634, "fits</w>": 3635, "halb</w>": 3636, "lap": 3637, "lar</w>": 3638, "orts</w>": 3639, "radfahrer</w>": 3640, "rock": 3641, "schwin": 3642, "viol": 3643, "Back": 3644, "Kapu": 3645, "Ren": 3646, "buil": 3647, "eting</w>": 3648, "fiel": 3649, "ghtly</w>": 3650, "mounta": 3651, "oth": 3652, "schwimm": 3653, "städti": 3654, "sub": 3655, "verschieden": 3656, "örper</w>": 3657, "5": 3658, "Man": 3659, "Pfa": 3660, "Tü": 3661, "dies</w>": 3662, "dung</w>": 3663, "lean": 3664, "mili": 3665, "ose</w>": 3666, "parti": 3667, "pie": 3668, "stand": 3669, "tal": 3670, "tures</w>": 3671, "uniform": 3672, "zieren</w>": 3673, "4": 3674, "Bad": 3675, "Da": 3676, "Gir": 3677, "Vo": 3678, "cl": 3679, "ffi": 3680, "list": 3681, "mmt</w>": 3682, "pers": 3683, "schrift</w>": 3684, "sle": 3685, "vest": 3686, "ängt</w>": 3687, "Klassen": 3688, "Männ": 3689, "X": 3690, "cloth": 3691, "drin": 3692, "eln": 3693, "gym": 3694, "jack": 3695, "less</w>": 3696, "oph": 3697, "ros": 3698, "some": 3699, "tanz": 3700, "tly</w>": 3701, "unger</w>": 3702, "wimm": 3703, "Gemü": 3704, "Kaja": 3705, "Kamp": 3706, "Klass": 3707, "Kostü": 3708, "Schie": 3709, "ampe</w>": 3710, "dor</w>": 3711, "ellow</w>": 3712, "fet": 3713, "ggles</w>": 3714, "haki": 3715, "lover</w>": 3716, "offic": 3717, "olz": 3718, "pho": 3719, "sam</w>": 3720, "schä": 3721, "shir": 3722, "ssy</w>": 3723, "#": 3724, "?": 3725, "Feuerw": 3726, "Ju": 3727, "amera</w>": 3728, "audi": 3729, "blan": 3730, "bär": 3731, "crow": 3732, "dents</w>": 3733, "dti": 3734, "ends</w>": 3735, "führ": 3736, "gebäu": 3737, "groß": 3738, "lag": 3739, "occer</w>": 3740, "side": 3741, "ums</w>": 3742, "verschnei": 3743, "7": 3744, "Bürger": 3745, "Com": 3746, "Musi": 3747, "Schlä": 3748, "Schwarz": 3749, "Sol": 3750, "blau": 3751, "competi": 3752, "hem": 3753, "häu": 3754, "imm": 3755, "ini</w>": 3756, "kämp": 3757, "rän": 3758, "smi": 3759, "stance</w>": 3760, "strum": 3761, "ya": 3762, "zurü": 3763, "Leu": 3764, "Stad": 3765, "ales</w>": 3766, "auss": 3767, "boarder</w>": 3768, "chin": 3769, "cli": 3770, "coup": 3771, "eht</w>": 3772, "formen</w>": 3773, "gent": 3774, "newspap": 3775, "roun": 3776, "scoo": 3777, "verti": 3778, "Frau": 3779, "Sn": 3780, "Tenni": 3781, "arded</w>": 3782, "are": 3783, "befin": 3784, "gath": 3785, "gebung</w>": 3786, "gem": 3787, "grü": 3788, "hir": 3789, "iefeln</w>": 3790, "ket</w>": 3791, "kot</w>": 3792, "kä": 3793, "lück": 3794, "prepar": 3795, "stal": 3796, "ährend</w>": 3797, "Dr": 3798, "Hem": 3799, "Rol": 3800, "Sur": 3801, "ballspieler</w>": 3802, "bäu": 3803, "cano": 3804, "conc": 3805, "ctators</w>": 3806, "derly</w>": 3807, "eing</w>": 3808, "entlichen</w>": 3809, "grund</w>": 3810, "gy": 3811, "kamp": 3812, "sket": 3813, "smitt": 3814, "sy</w>": 3815, "tary</w>": 3816, "thing</w>": 3817, "todd": 3818, "uf": 3819, "wh": 3820, "zert</w>": 3821, "ähr": 3822, "Famili": 3823, "Hö": 3824, "Kle": 3825, "Schür": 3826, "Tan": 3827, "ank</w>": 3828, "climb": 3829, "deo</w>": 3830, "ired</w>": 3831, "nee": 3832, "rist": 3833, "som": 3834, "vari": 3835, "ßer": 3836, "Bli": 3837, "Gebäu": 3838, "Get": 3839, "Kopfbedeck": 3840, "Rü": 3841, "Son": 3842, "Zig": 3843, "außer": 3844, "bare": 3845, "dau": 3846, "dress": 3847, "füll": 3848, "gend": 3849, "telefon": 3850, "ti</w>": 3851, "wischen</w>": 3852, "äumen</w>": 3853, "Badeh": 3854, "Bür": 3855, "Gro": 3856, "Men": 3857, "Vorder": 3858, "ators</w>": 3859, "busine": 3860, "cigar": 3861, "electri": 3862, "ena": 3863, "equ": 3864, "esi": 3865, "fähr": 3866, "gir": 3867, "helm": 3868, "raußen</w>": 3869, "sband</w>": 3870, "senen</w>": 3871, "togra": 3872, "towi": 3873, "zimm": 3874, "ühr": 3875, "BM": 3876, "Fer": 3877, "Gesi": 3878, "Kop": 3879, "Poliz": 3880, "Schreib": 3881, "Wo": 3882, "abo": 3883, "anstal": 3884, "auer</w>": 3885, "autiful</w>": 3886, "bet": 3887, "comp": 3888, "fit</w>": 3889, "gemein": 3890, "grün": 3891, "las</w>": 3892, "ling": 3893, "mily</w>": 3894, "profe": 3895, "ssion": 3896, "trin": 3897, "watte</w>": 3898, "/": 3899, "Base": 3900, "Berei": 3901, "Feu": 3902, "Mä": 3903, "Polizi": 3904, "Schrei": 3905, "Shir": 3906, "Some": 3907, "Swe": 3908, "Viel": 3909, "Zigar": 3910, "aft</w>": 3911, "aga": 3912, "balanci": 3913, "befestig": 3914, "dition": 3915, "ecke</w>": 3916, "ffer": 3917, "inst</w>": 3918, "kit": 3919, "mirro": 3920, "mittl": 3921, "oul": 3922, "partici": 3923, "schine</w>": 3924, "sine": 3925, "sleep</w>": 3926, "stum": 3927, "tless</w>": 3928, "ttle</w>": 3929, "uft</w>": 3930, "wach": 3931, "zur": 3932, "%": 3933, "@": 3934, "Basket": 3935, "Blau": 3936, "Mik": 3937, "Mikroph": 3938, "Seifen": 3939, "Sicher": 3940, "West": 3941, "allow</w>": 3942, "ander</w>": 3943, "atischen</w>": 3944, "atten</w>": 3945, "bele": 3946, "beleb": 3947, "boy": 3948, "chil": 3949, "daugh": 3950, "dings</w>": 3951, "equip": 3952, "fore": 3953, "glass": 3954, "ork</w>": 3955, "reif": 3956, "stung</w>": 3957, "swi": 3958, "tial</w>": 3959, "tsche</w>": 3960, "urch</w>": 3961, "versamm": 3962, "vidu": 3963, "wimmen</w>": 3964, "Geländem": 3965, "Leben": 3966, "Oberk": 3967, "Sonnenunter": 3968, "Triko": 3969, "atue</w>": 3970, "auti": 3971, "door": 3972, "ella</w>": 3973, "hirt</w>": 3974, "klett": 3975, "köp": 3976, "la</w>": 3977, "mas</w>": 3978, "oba": 3979, "offi": 3980, "onloo": 3981, "plat": 3982, "sonni": 3983, "srichter</w>": 3984, "tballspieler</w>": 3985, "uhen</w>": 3986, "versu": 3987, "é</w>": 3988, "ñ": 3989, "”": 3990, "Mobil": 3991, "Straß": 3992, "`": 3993, "beoba": 3994, "cele": 3995, "class": 3996, "costum": 3997, "dir": 3998, "eir</w>": 3999, "fore</w>": 4000, "gän": 4001, "immel</w>": 4002, "läch": 4003, "mir": 4004, "pher</w>": 4005, "roth": 4006, "spap": 4007, "straß": 4008, "telefon</w>": 4009, "tografi": 4010, "veral</w>": 4011, "é": 4012, "‘": 4013, "’": 4014, "$": 4015, "=": 4016, "Erwachsen": 4017, "Schied": 4018, "_": 4019, "accor": 4020, "adul": 4021, "airs</w>": 4022, "aurant</w>": 4023, "bede": 4024, "betra": 4025, "blikum</w>": 4026, "dder</w>": 4027, "differ": 4028, "oung</w>": 4029, "publi": 4030, "raß": 4031, "schäft</w>": 4032, "sri": 4033, "struction</w>": 4034, "swin": 4035, "throw": 4036, "toge": 4037, "uhl</w>": 4038, "untain</w>": 4039, "walk": 4040, "warz": 4041, "wei</w>": 4042, "à": 4043, "è": 4044, "!": 4045, "\"": 4046, "'": 4047, "(": 4048, ")": 4049, ",": 4050, "-": 4051, ".": 4052, ";": 4053, "Akkor": 4054, "BMX": 4055, "Erwach": 4056, "Fün": 4057, "Geländemo": 4058, "Instrum": 4059, "Ten": 4060, "Weihn": 4061, "arby</w>": 4062, "armt</w>": 4063, "ateboar": 4064, "ateboard</w>": 4065, "atshirt</w>": 4066, "ballo": 4067, "beneinander</w>": 4068, "betwe": 4069, "blik": 4070, "concre": 4071, "dren</w>": 4072, "ehrere</w>": 4073, "ellas</w>": 4074, "emand": 4075, "eople</w>": 4076, "fem": 4077, "fety</w>": 4078, "ffiti</w>": 4079, "ful": 4080, "geklei": 4081, "gekleide": 4082, "genie": 4083, "helme": 4084, "iese</w>": 4085, "ihr": 4086, "leyball</w>": 4087, "outdo": 4088, "owboy</w>": 4089, "photogra": 4090, "puter</w>": 4091, "seball</w>": 4092, "sketball</w>": 4093, "tersu": 4094, "umbr": 4095, "uß": 4096, "verkau": 4097, "wim": 4098, "ycli": 4099, "überqu": 4100, "–": 4101, "“": 4102, "„": 4103}}